{
  "version": "1.0",
  "truncation": {
    "direction": "Right",
    "max_length": 512,
    "strategy": "LongestFirst",
    "stride": 0
  },
  "padding": null,
  "added_tokens": [
    {
      "id": 0,
      "content": "<unk>",
      "single_word": false,
      "lstrip": false,
      "rstrip": false,
      "normalized": false,
      "special": true
    },
    {
      "id": 1,
      "content": "<s>",
      "single_word": false,
      "lstrip": false,
      "rstrip": false,
      "normalized": false,
      "special": true
    },
    {
      "id": 2,
      "content": "</s>",
      "single_word": false,
      "lstrip": false,
      "rstrip": false,
      "normalized": false,
      "special": true
    }
  ],
  "normalizer": {
    "type": "Sequence",
    "normalizers": [
      {
        "type": "Prepend",
        "prepend": "▁"
      },
      {
        "type": "Replace",
        "pattern": {
          "String": " "
        },
        "content": "▁"
      }
    ]
  },
  "pre_tokenizer": null,
  "post_processor": {
    "type": "TemplateProcessing",
    "single": [
      {
        "SpecialToken": {
          "id": "<s>",
          "type_id": 0
        }
      },
      {
        "Sequence": {
          "id": "A",
          "type_id": 0
        }
      }
    ],
    "pair": [
      {
        "SpecialToken": {
          "id": "<s>",
          "type_id": 0
        }
      },
      {
        "Sequence": {
          "id": "A",
          "type_id": 0
        }
      },
      {
        "SpecialToken": {
          "id": "<s>",
          "type_id": 1
        }
      },
      {
        "Sequence": {
          "id": "B",
          "type_id": 1
        }
      }
    ],
    "special_tokens": {
      "<s>": {
        "id": "<s>",
        "ids": [
          1
        ],
        "tokens": [
          "<s>"
        ]
      }
    }
  },
  "decoder": {
    "type": "Sequence",
    "decoders": [
      {
        "type": "Replace",
        "pattern": {
          "String": "▁"
        },
        "content": " "
      },
      {
        "type": "ByteFallback"
      },
      {
        "type": "Fuse"
      },
      {
        "type": "Strip",
        "content": " ",
        "start": 1,
        "stop": 0
      }
    ]
  },
  "model": {
    "type": "BPE",
    "dropout": null,
    "unk_token": "<unk>",
    "continuing_subword_prefix": null,
    "end_of_word_suffix": null,
    "fuse_unk": true,
    "byte_fallback": true,
    "ignore_merges": false,
    "vocab": {
      "<unk>": 0,
      "<s>": 1,
      "</s>": 2,
      "<SEP>": 3,
      "<CLS>": 4,
      "\n": 5,
      "\t": 6,
      "<img>": 7,
      "<img/>": 8,
      "</img>": 9,
      "<h2>": 10,
      "<h2/>": 11,
      "</h2>": 12,
      "<td>": 13,
      "<td/>": 14,
      "</td>": 15,
      "<strong>": 16,
      "<strong/>": 17,
      "</strong>": 18,
      "<table>": 19,
      "<table/>": 20,
      "</table>": 21,
      "<tr>": 22,
      "<tr/>": 23,
      "</tr>": 24,
      "<li>": 25,
      "<li/>": 26,
      "</li>": 27,
      "<b>": 28,
      "<b/>": 29,
      "</b>": 30,
      "<h3>": 31,
      "<h3/>": 32,
      "</h3>": 33,
      "<br>": 34,
      "<br/>": 35,
      "</br>": 36,
      "<h4>": 37,
      "<h4/>": 38,
      "</h4>": 39,
      "<h5>": 40,
      "<h5/>": 41,
      "</h5>": 42,
      "<p>": 43,
      "<p/>": 44,
      "</p>": 45,
      "<h1>": 46,
      "<h1/>": 47,
      "</h1>": 48,
      "<tbody>": 49,
      "<tbody/>": 50,
      "</tbody>": 51,
      "０": 52,
      "１": 53,
      "２": 54,
      "３": 55,
      "４": 56,
      "５": 57,
      "６": 58,
      "７": 59,
      "８": 60,
      "９": 61,
      "+": 62,
      "-": 63,
      "=": 64,
      "，": 65,
      "。": 66,
      "！": 67,
      "？": 68,
      "、": 69,
      "：": 70,
      "￥": 71,
      ".": 72,
      "!": 73,
      "?": 74,
      "...": 75,
      "。。。": 76,
      "。。。。。。": 77,
      "《": 78,
      "》": 79,
      "【": 80,
      "】": 81,
      "『": 82,
      "』": 83,
      "```": 84,
      "<!--": 85,
      "-->": 86,
      "---": 87,
      "<!DOCTYPE>": 88,
      "；": 89,
      "．": 90,
      "＝": 91,
      "＜": 92,
      "＞": 93,
      "－": 94,
      "＋": 95,
      "％": 96,
      "‼": 97,
      "㊣": 98,
      "／": 99,
      "｜": 100,
      "<reserved_12>": 101,
      "<reserved_13>": 102,
      "<reserved_14>": 103,
      "<reserved_15>": 104,
      "<reserved_16>": 105,
      "<reserved_17>": 106,
      "<reserved_18>": 107,
      "<reserved_19>": 108,
      "<reserved_20>": 109,
      "<reserved_21>": 110,
      "<reserved_22>": 111,
      "<reserved_23>": 112,
      "<reserved_24>": 113,
      "<reserved_25>": 114,
      "<reserved_26>": 115,
      "<reserved_27>": 116,
      "<reserved_28>": 117,
      "<reserved_29>": 118,
      "<reserved_30>": 119,
      "<reserved_31>": 120,
      "<reserved_32>": 121,
      "<reserved_33>": 122,
      "<reserved_34>": 123,
      "<reserved_35>": 124,
      "<reserved_36>": 125,
      "<reserved_37>": 126,
      "<reserved_38>": 127,
      "<reserved_39>": 128,
      "<reserved_40>": 129,
      "<reserved_41>": 130,
      "<reserved_42>": 131,
      "<reserved_43>": 132,
      "<reserved_44>": 133,
      "<reserved_45>": 134,
      "<reserved_46>": 135,
      "<reserved_47>": 136,
      "<reserved_48>": 137,
      "<reserved_49>": 138,
      "<reserved_50>": 139,
      "<reserved_51>": 140,
      "<reserved_52>": 141,
      "<reserved_53>": 142,
      "<reserved_54>": 143,
      "<reserved_55>": 144,
      "<reserved_56>": 145,
      "<reserved_57>": 146,
      "<reserved_58>": 147,
      "<reserved_59>": 148,
      "<reserved_60>": 149,
      "<reserved_61>": 150,
      "<reserved_62>": 151,
      "<reserved_63>": 152,
      "<reserved_64>": 153,
      "<reserved_65>": 154,
      "<reserved_66>": 155,
      "<reserved_67>": 156,
      "<reserved_68>": 157,
      "<reserved_69>": 158,
      "<reserved_70>": 159,
      "<reserved_71>": 160,
      "<reserved_72>": 161,
      "<reserved_73>": 162,
      "<reserved_74>": 163,
      "<reserved_75>": 164,
      "<reserved_76>": 165,
      "<reserved_77>": 166,
      "<reserved_78>": 167,
      "<reserved_79>": 168,
      "<reserved_80>": 169,
      "<reserved_81>": 170,
      "<reserved_82>": 171,
      "<reserved_83>": 172,
      "<reserved_84>": 173,
      "<reserved_85>": 174,
      "<reserved_86>": 175,
      "<reserved_87>": 176,
      "<reserved_88>": 177,
      "<reserved_89>": 178,
      "<reserved_90>": 179,
      "<reserved_91>": 180,
      "<reserved_92>": 181,
      "<reserved_93>": 182,
      "<reserved_94>": 183,
      "<reserved_95>": 184,
      "<reserved_96>": 185,
      "<reserved_97>": 186,
      "<reserved_98>": 187,
      "<reserved_99>": 188,
      "<reserved_100>": 189,
      "<reserved_101>": 190,
      "<reserved_102>": 191,
      "<reserved_103>": 192,
      "<reserved_104>": 193,
      "<reserved_105>": 194,
      "<reserved_106>": 195,
      "<reserved_107>": 196,
      "<reserved_108>": 197,
      "<reserved_109>": 198,
      "<reserved_110>": 199,
      "<reserved_111>": 200,
      "<reserved_112>": 201,
      "<reserved_113>": 202,
      "<reserved_114>": 203,
      "<reserved_115>": 204,
      "<reserved_116>": 205,
      "<reserved_117>": 206,
      "<reserved_118>": 207,
      "<reserved_119>": 208,
      "<reserved_120>": 209,
      "<reserved_121>": 210,
      "<reserved_122>": 211,
      "<reserved_123>": 212,
      "<reserved_124>": 213,
      "<reserved_125>": 214,
      "<reserved_126>": 215,
      "<reserved_127>": 216,
      "<reserved_128>": 217,
      "<reserved_129>": 218,
      "<reserved_130>": 219,
      "<reserved_131>": 220,
      "<reserved_132>": 221,
      "<reserved_133>": 222,
      "<reserved_134>": 223,
      "<reserved_135>": 224,
      "<reserved_136>": 225,
      "<reserved_137>": 226,
      "<reserved_138>": 227,
      "<reserved_139>": 228,
      "<reserved_140>": 229,
      "<reserved_141>": 230,
      "<reserved_142>": 231,
      "<reserved_143>": 232,
      "<reserved_144>": 233,
      "<reserved_145>": 234,
      "<reserved_146>": 235,
      "<reserved_147>": 236,
      "<reserved_148>": 237,
      "<reserved_149>": 238,
      "<reserved_150>": 239,
      "<reserved_151>": 240,
      "<reserved_152>": 241,
      "<reserved_153>": 242,
      "<reserved_154>": 243,
      "<reserved_155>": 244,
      "<reserved_156>": 245,
      "<reserved_157>": 246,
      "<reserved_158>": 247,
      "<reserved_159>": 248,
      "<reserved_160>": 249,
      "<reserved_161>": 250,
      "<reserved_162>": 251,
      "<reserved_163>": 252,
      "<reserved_164>": 253,
      "<reserved_165>": 254,
      "<reserved_166>": 255,
      "<reserved_167>": 256,
      "<reserved_168>": 257,
      "<reserved_169>": 258,
      "<reserved_170>": 259,
      "<reserved_171>": 260,
      "<reserved_172>": 261,
      "<reserved_173>": 262,
      "<reserved_174>": 263,
      "<reserved_175>": 264,
      "<reserved_176>": 265,
      "<reserved_177>": 266,
      "<reserved_178>": 267,
      "<reserved_179>": 268,
      "<reserved_180>": 269,
      "<reserved_181>": 270,
      "<reserved_182>": 271,
      "<reserved_183>": 272,
      "<reserved_184>": 273,
      "<reserved_185>": 274,
      "<reserved_186>": 275,
      "<reserved_187>": 276,
      "<reserved_188>": 277,
      "<reserved_189>": 278,
      "<reserved_190>": 279,
      "<reserved_191>": 280,
      "<reserved_192>": 281,
      "<reserved_193>": 282,
      "<reserved_194>": 283,
      "<reserved_195>": 284,
      "<reserved_196>": 285,
      "<reserved_197>": 286,
      "<reserved_198>": 287,
      "<reserved_199>": 288,
      "<reserved_200>": 289,
      "<reserved_201>": 290,
      "<reserved_202>": 291,
      "<reserved_203>": 292,
      "<reserved_204>": 293,
      "<reserved_205>": 294,
      "<reserved_206>": 295,
      "<reserved_207>": 296,
      "<reserved_208>": 297,
      "<reserved_209>": 298,
      "<reserved_210>": 299,
      "<reserved_211>": 300,
      "<reserved_212>": 301,
      "<reserved_213>": 302,
      "<reserved_214>": 303,
      "<reserved_215>": 304,
      "<reserved_216>": 305,
      "<reserved_217>": 306,
      "<reserved_218>": 307,
      "<reserved_219>": 308,
      "<reserved_220>": 309,
      "<reserved_221>": 310,
      "<reserved_222>": 311,
      "<reserved_223>": 312,
      "<reserved_224>": 313,
      "<reserved_225>": 314,
      "<reserved_226>": 315,
      "<reserved_227>": 316,
      "<reserved_228>": 317,
      "<reserved_229>": 318,
      "<reserved_230>": 319,
      "<reserved_231>": 320,
      "<reserved_232>": 321,
      "<reserved_233>": 322,
      "<reserved_234>": 323,
      "<reserved_235>": 324,
      "<reserved_236>": 325,
      "<reserved_237>": 326,
      "<reserved_238>": 327,
      "<reserved_239>": 328,
      "<reserved_240>": 329,
      "<reserved_241>": 330,
      "<reserved_242>": 331,
      "<reserved_243>": 332,
      "<reserved_244>": 333,
      "<reserved_245>": 334,
      "<reserved_246>": 335,
      "<reserved_247>": 336,
      "<reserved_248>": 337,
      "<reserved_249>": 338,
      "<reserved_250>": 339,
      "<reserved_251>": 340,
      "<reserved_252>": 341,
      "<reserved_253>": 342,
      "<reserved_254>": 343,
      "<reserved_255>": 344,
      "<reserved_256>": 345,
      "<reserved_257>": 346,
      "<reserved_258>": 347,
      "<reserved_259>": 348,
      "<reserved_260>": 349,
      "<reserved_261>": 350,
      "<reserved_262>": 351,
      "<reserved_263>": 352,
      "<reserved_264>": 353,
      "<reserved_265>": 354,
      "<reserved_266>": 355,
      "<reserved_267>": 356,
      "<reserved_268>": 357,
      "<reserved_269>": 358,
      "<reserved_270>": 359,
      "<reserved_271>": 360,
      "<reserved_272>": 361,
      "<reserved_273>": 362,
      "<reserved_274>": 363,
      "<reserved_275>": 364,
      "<reserved_276>": 365,
      "<reserved_277>": 366,
      "<reserved_278>": 367,
      "<reserved_279>": 368,
      "<reserved_280>": 369,
      "<reserved_281>": 370,
      "<reserved_282>": 371,
      "<reserved_283>": 372,
      "<reserved_284>": 373,
      "<reserved_285>": 374,
      "<reserved_286>": 375,
      "<reserved_287>": 376,
      "<reserved_288>": 377,
      "<reserved_289>": 378,
      "<reserved_290>": 379,
      "<reserved_291>": 380,
      "<reserved_292>": 381,
      "<reserved_293>": 382,
      "<reserved_294>": 383,
      "<reserved_295>": 384,
      "<reserved_296>": 385,
      "<reserved_297>": 386,
      "<reserved_298>": 387,
      "<reserved_299>": 388,
      "<reserved_300>": 389,
      "<reserved_301>": 390,
      "<reserved_302>": 391,
      "<reserved_303>": 392,
      "<reserved_304>": 393,
      "<reserved_305>": 394,
      "<reserved_306>": 395,
      "<reserved_307>": 396,
      "<reserved_308>": 397,
      "<reserved_309>": 398,
      "<reserved_310>": 399,
      "<reserved_311>": 400,
      "<reserved_312>": 401,
      "<reserved_313>": 402,
      "<reserved_314>": 403,
      "<reserved_315>": 404,
      "<reserved_316>": 405,
      "<reserved_317>": 406,
      "<reserved_318>": 407,
      "<reserved_319>": 408,
      "<reserved_320>": 409,
      "<reserved_321>": 410,
      "<reserved_322>": 411,
      "<reserved_323>": 412,
      "<reserved_324>": 413,
      "<reserved_325>": 414,
      "<reserved_326>": 415,
      "<reserved_327>": 416,
      "<reserved_328>": 417,
      "<reserved_329>": 418,
      "<reserved_330>": 419,
      "<reserved_331>": 420,
      "<reserved_332>": 421,
      "<reserved_333>": 422,
      "<reserved_334>": 423,
      "<reserved_335>": 424,
      "<reserved_336>": 425,
      "<reserved_337>": 426,
      "<reserved_338>": 427,
      "<reserved_339>": 428,
      "<reserved_340>": 429,
      "<reserved_341>": 430,
      "<reserved_342>": 431,
      "<reserved_343>": 432,
      "<reserved_344>": 433,
      "<reserved_345>": 434,
      "<reserved_346>": 435,
      "<reserved_347>": 436,
      "<reserved_348>": 437,
      "<reserved_349>": 438,
      "<reserved_350>": 439,
      "<reserved_351>": 440,
      "<reserved_352>": 441,
      "<reserved_353>": 442,
      "<reserved_354>": 443,
      "<reserved_355>": 444,
      "<reserved_356>": 445,
      "<reserved_357>": 446,
      "<reserved_358>": 447,
      "<reserved_359>": 448,
      "<reserved_360>": 449,
      "<reserved_361>": 450,
      "<reserved_362>": 451,
      "<reserved_363>": 452,
      "<reserved_364>": 453,
      "<reserved_365>": 454,
      "<reserved_366>": 455,
      "<reserved_367>": 456,
      "<reserved_368>": 457,
      "<reserved_369>": 458,
      "<reserved_370>": 459,
      "<reserved_371>": 460,
      "<reserved_372>": 461,
      "<reserved_373>": 462,
      "<reserved_374>": 463,
      "<reserved_375>": 464,
      "<reserved_376>": 465,
      "<reserved_377>": 466,
      "<reserved_378>": 467,
      "<reserved_379>": 468,
      "<reserved_380>": 469,
      "<reserved_381>": 470,
      "<reserved_382>": 471,
      "<reserved_383>": 472,
      "<reserved_384>": 473,
      "<reserved_385>": 474,
      "<reserved_386>": 475,
      "<reserved_387>": 476,
      "<reserved_388>": 477,
      "<reserved_389>": 478,
      "<reserved_390>": 479,
      "<reserved_391>": 480,
      "<reserved_392>": 481,
      "<reserved_393>": 482,
      "<reserved_394>": 483,
      "<reserved_395>": 484,
      "<reserved_396>": 485,
      "<reserved_397>": 486,
      "<reserved_398>": 487,
      "<reserved_399>": 488,
      "<reserved_400>": 489,
      "<reserved_401>": 490,
      "<reserved_402>": 491,
      "<reserved_403>": 492,
      "<reserved_404>": 493,
      "<reserved_405>": 494,
      "<reserved_406>": 495,
      "<reserved_407>": 496,
      "<reserved_408>": 497,
      "<reserved_409>": 498,
      "<reserved_410>": 499,
      "<reserved_411>": 500,
      "<reserved_412>": 501,
      "<reserved_413>": 502,
      "<reserved_414>": 503,
      "<reserved_415>": 504,
      "<reserved_416>": 505,
      "<reserved_417>": 506,
      "<reserved_418>": 507,
      "<reserved_419>": 508,
      "<reserved_420>": 509,
      "<reserved_421>": 510,
      "<reserved_422>": 511,
      "<reserved_423>": 512,
      "<reserved_424>": 513,
      "<reserved_425>": 514,
      "<reserved_426>": 515,
      "<reserved_427>": 516,
      "<reserved_428>": 517,
      "<reserved_429>": 518,
      "<reserved_430>": 519,
      "<reserved_431>": 520,
      "<reserved_432>": 521,
      "<reserved_433>": 522,
      "<reserved_434>": 523,
      "<reserved_435>": 524,
      "<reserved_436>": 525,
      "<reserved_437>": 526,
      "<reserved_438>": 527,
      "<reserved_439>": 528,
      "<reserved_440>": 529,
      "<reserved_441>": 530,
      "<reserved_442>": 531,
      "<reserved_443>": 532,
      "<reserved_444>": 533,
      "<reserved_445>": 534,
      "<reserved_446>": 535,
      "<reserved_447>": 536,
      "<reserved_448>": 537,
      "<reserved_449>": 538,
      "<reserved_450>": 539,
      "<reserved_451>": 540,
      "<reserved_452>": 541,
      "<reserved_453>": 542,
      "<reserved_454>": 543,
      "<reserved_455>": 544,
      "<reserved_456>": 545,
      "<reserved_457>": 546,
      "<reserved_458>": 547,
      "<reserved_459>": 548,
      "<reserved_460>": 549,
      "<reserved_461>": 550,
      "<reserved_462>": 551,
      "<reserved_463>": 552,
      "<reserved_464>": 553,
      "<reserved_465>": 554,
      "<reserved_466>": 555,
      "<reserved_467>": 556,
      "<reserved_468>": 557,
      "<reserved_469>": 558,
      "<reserved_470>": 559,
      "<reserved_471>": 560,
      "<reserved_472>": 561,
      "<reserved_473>": 562,
      "<reserved_474>": 563,
      "<reserved_475>": 564,
      "<reserved_476>": 565,
      "<reserved_477>": 566,
      "<reserved_478>": 567,
      "<reserved_479>": 568,
      "<reserved_480>": 569,
      "<reserved_481>": 570,
      "<reserved_482>": 571,
      "<reserved_483>": 572,
      "<reserved_484>": 573,
      "<reserved_485>": 574,
      "<reserved_486>": 575,
      "<reserved_487>": 576,
      "<reserved_488>": 577,
      "<reserved_489>": 578,
      "<reserved_490>": 579,
      "<reserved_491>": 580,
      "<reserved_492>": 581,
      "<reserved_493>": 582,
      "<reserved_494>": 583,
      "<reserved_495>": 584,
      "<reserved_496>": 585,
      "<reserved_497>": 586,
      "<reserved_498>": 587,
      "<reserved_499>": 588,
      "<reserved_500>": 589,
      "<reserved_501>": 590,
      "<reserved_502>": 591,
      "<reserved_503>": 592,
      "<reserved_504>": 593,
      "<reserved_505>": 594,
      "<reserved_506>": 595,
      "<reserved_507>": 596,
      "<reserved_508>": 597,
      "<reserved_509>": 598,
      "<reserved_510>": 599,
      "<reserved_511>": 600,
      "<reserved_512>": 601,
      "<reserved_513>": 602,
      "<reserved_514>": 603,
      "<reserved_515>": 604,
      "<reserved_516>": 605,
      "<reserved_517>": 606,
      "<reserved_518>": 607,
      "<reserved_519>": 608,
      "<reserved_520>": 609,
      "<reserved_521>": 610,
      "<reserved_522>": 611,
      "<reserved_523>": 612,
      "<reserved_524>": 613,
      "<reserved_525>": 614,
      "<reserved_526>": 615,
      "<reserved_527>": 616,
      "<reserved_528>": 617,
      "<reserved_529>": 618,
      "<reserved_530>": 619,
      "<reserved_531>": 620,
      "<reserved_532>": 621,
      "<reserved_533>": 622,
      "<reserved_534>": 623,
      "<reserved_535>": 624,
      "<reserved_536>": 625,
      "<reserved_537>": 626,
      "<reserved_538>": 627,
      "<reserved_539>": 628,
      "<reserved_540>": 629,
      "<reserved_541>": 630,
      "<reserved_542>": 631,
      "<reserved_543>": 632,
      "<reserved_544>": 633,
      "<reserved_545>": 634,
      "<reserved_546>": 635,
      "<reserved_547>": 636,
      "<reserved_548>": 637,
      "<reserved_549>": 638,
      "<reserved_550>": 639,
      "<reserved_551>": 640,
      "<reserved_552>": 641,
      "<reserved_553>": 642,
      "<reserved_554>": 643,
      "<reserved_555>": 644,
      "<reserved_556>": 645,
      "<reserved_557>": 646,
      "<reserved_558>": 647,
      "<reserved_559>": 648,
      "<reserved_560>": 649,
      "<reserved_561>": 650,
      "<reserved_562>": 651,
      "<reserved_563>": 652,
      "<reserved_564>": 653,
      "<reserved_565>": 654,
      "<reserved_566>": 655,
      "<reserved_567>": 656,
      "<reserved_568>": 657,
      "<reserved_569>": 658,
      "<reserved_570>": 659,
      "<reserved_571>": 660,
      "<reserved_572>": 661,
      "<reserved_573>": 662,
      "<reserved_574>": 663,
      "<reserved_575>": 664,
      "<reserved_576>": 665,
      "<reserved_577>": 666,
      "<reserved_578>": 667,
      "<reserved_579>": 668,
      "<reserved_580>": 669,
      "<reserved_581>": 670,
      "<reserved_582>": 671,
      "<reserved_583>": 672,
      "<reserved_584>": 673,
      "<reserved_585>": 674,
      "<reserved_586>": 675,
      "<reserved_587>": 676,
      "<reserved_588>": 677,
      "<reserved_589>": 678,
      "<reserved_590>": 679,
      "<reserved_591>": 680,
      "<reserved_592>": 681,
      "<reserved_593>": 682,
      "<reserved_594>": 683,
      "<reserved_595>": 684,
      "<reserved_596>": 685,
      "<reserved_597>": 686,
      "<reserved_598>": 687,
      "<reserved_599>": 688,
      "<reserved_600>": 689,
      "<reserved_601>": 690,
      "<reserved_602>": 691,
      "<reserved_603>": 692,
      "<reserved_604>": 693,
      "<reserved_605>": 694,
      "<reserved_606>": 695,
      "<reserved_607>": 696,
      "<reserved_608>": 697,
      "<reserved_609>": 698,
      "<reserved_610>": 699,
      "<reserved_611>": 700,
      "<reserved_612>": 701,
      "<reserved_613>": 702,
      "<reserved_614>": 703,
      "<reserved_615>": 704,
      "<reserved_616>": 705,
      "<reserved_617>": 706,
      "<reserved_618>": 707,
      "<reserved_619>": 708,
      "<reserved_620>": 709,
      "<reserved_621>": 710,
      "<reserved_622>": 711,
      "<reserved_623>": 712,
      "<reserved_624>": 713,
      "<reserved_625>": 714,
      "<reserved_626>": 715,
      "<reserved_627>": 716,
      "<reserved_628>": 717,
      "<reserved_629>": 718,
      "<reserved_630>": 719,
      "<reserved_631>": 720,
      "<reserved_632>": 721,
      "<reserved_633>": 722,
      "<reserved_634>": 723,
      "<reserved_635>": 724,
      "<reserved_636>": 725,
      "<reserved_637>": 726,
      "<reserved_638>": 727,
      "<reserved_639>": 728,
      "<reserved_640>": 729,
      "<reserved_641>": 730,
      "<reserved_642>": 731,
      "<reserved_643>": 732,
      "<reserved_644>": 733,
      "<reserved_645>": 734,
      "<reserved_646>": 735,
      "<reserved_647>": 736,
      "<reserved_648>": 737,
      "<reserved_649>": 738,
      "<reserved_650>": 739,
      "<reserved_651>": 740,
      "<reserved_652>": 741,
      "<reserved_653>": 742,
      "<reserved_654>": 743,
      "<reserved_655>": 744,
      "<reserved_656>": 745,
      "<reserved_657>": 746,
      "<reserved_658>": 747,
      "<reserved_659>": 748,
      "<reserved_660>": 749,
      "<reserved_661>": 750,
      "<reserved_662>": 751,
      "<reserved_663>": 752,
      "<reserved_664>": 753,
      "<reserved_665>": 754,
      "<reserved_666>": 755,
      "<reserved_667>": 756,
      "<reserved_668>": 757,
      "<reserved_669>": 758,
      "<reserved_670>": 759,
      "<reserved_671>": 760,
      "<reserved_672>": 761,
      "<reserved_673>": 762,
      "<reserved_674>": 763,
      "<reserved_675>": 764,
      "<reserved_676>": 765,
      "<reserved_677>": 766,
      "<reserved_678>": 767,
      "<reserved_679>": 768,
      "<reserved_680>": 769,
      "<reserved_681>": 770,
      "<reserved_682>": 771,
      "<reserved_683>": 772,
      "<reserved_684>": 773,
      "<reserved_685>": 774,
      "<reserved_686>": 775,
      "<reserved_687>": 776,
      "<reserved_688>": 777,
      "<reserved_689>": 778,
      "<reserved_690>": 779,
      "<reserved_691>": 780,
      "<reserved_692>": 781,
      "<reserved_693>": 782,
      "<reserved_694>": 783,
      "<reserved_695>": 784,
      "<reserved_696>": 785,
      "<reserved_697>": 786,
      "<reserved_698>": 787,
      "<reserved_699>": 788,
      "<reserved_700>": 789,
      "<reserved_701>": 790,
      "<reserved_702>": 791,
      "<reserved_703>": 792,
      "<reserved_704>": 793,
      "<reserved_705>": 794,
      "<reserved_706>": 795,
      "<reserved_707>": 796,
      "<reserved_708>": 797,
      "<reserved_709>": 798,
      "<reserved_710>": 799,
      "<reserved_711>": 800,
      "<reserved_712>": 801,
      "<reserved_713>": 802,
      "<reserved_714>": 803,
      "<reserved_715>": 804,
      "<reserved_716>": 805,
      "<reserved_717>": 806,
      "<reserved_718>": 807,
      "<reserved_719>": 808,
      "<reserved_720>": 809,
      "<reserved_721>": 810,
      "<reserved_722>": 811,
      "<reserved_723>": 812,
      "<reserved_724>": 813,
      "<reserved_725>": 814,
      "<reserved_726>": 815,
      "<reserved_727>": 816,
      "<reserved_728>": 817,
      "<reserved_729>": 818,
      "<reserved_730>": 819,
      "<reserved_731>": 820,
      "<reserved_732>": 821,
      "<reserved_733>": 822,
      "<reserved_734>": 823,
      "<reserved_735>": 824,
      "<reserved_736>": 825,
      "<reserved_737>": 826,
      "<reserved_738>": 827,
      "<reserved_739>": 828,
      "<reserved_740>": 829,
      "<reserved_741>": 830,
      "<reserved_742>": 831,
      "<reserved_743>": 832,
      "<reserved_744>": 833,
      "<reserved_745>": 834,
      "<reserved_746>": 835,
      "<reserved_747>": 836,
      "<reserved_748>": 837,
      "<reserved_749>": 838,
      "<reserved_750>": 839,
      "<reserved_751>": 840,
      "<reserved_752>": 841,
      "<reserved_753>": 842,
      "<reserved_754>": 843,
      "<reserved_755>": 844,
      "<reserved_756>": 845,
      "<reserved_757>": 846,
      "<reserved_758>": 847,
      "<reserved_759>": 848,
      "<reserved_760>": 849,
      "<reserved_761>": 850,
      "<reserved_762>": 851,
      "<reserved_763>": 852,
      "<reserved_764>": 853,
      "<reserved_765>": 854,
      "<reserved_766>": 855,
      "<reserved_767>": 856,
      "<reserved_768>": 857,
      "<reserved_769>": 858,
      "<reserved_770>": 859,
      "<reserved_771>": 860,
      "<reserved_772>": 861,
      "<reserved_773>": 862,
      "<reserved_774>": 863,
      "<reserved_775>": 864,
      "<reserved_776>": 865,
      "<reserved_777>": 866,
      "<reserved_778>": 867,
      "<reserved_779>": 868,
      "<reserved_780>": 869,
      "<reserved_781>": 870,
      "<reserved_782>": 871,
      "<reserved_783>": 872,
      "<reserved_784>": 873,
      "<reserved_785>": 874,
      "<reserved_786>": 875,
      "<reserved_787>": 876,
      "<reserved_788>": 877,
      "<reserved_789>": 878,
      "<reserved_790>": 879,
      "<reserved_791>": 880,
      "<reserved_792>": 881,
      "<reserved_793>": 882,
      "<reserved_794>": 883,
      "<reserved_795>": 884,
      "<reserved_796>": 885,
      "<reserved_797>": 886,
      "<reserved_798>": 887,
      "<reserved_799>": 888,
      "<reserved_800>": 889,
      "<reserved_801>": 890,
      "<reserved_802>": 891,
      "<reserved_803>": 892,
      "<reserved_804>": 893,
      "<reserved_805>": 894,
      "<reserved_806>": 895,
      "<reserved_807>": 896,
      "<reserved_808>": 897,
      "<reserved_809>": 898,
      "<reserved_810>": 899,
      "<reserved_811>": 900,
      "<reserved_812>": 901,
      "<reserved_813>": 902,
      "<reserved_814>": 903,
      "<reserved_815>": 904,
      "<reserved_816>": 905,
      "<reserved_817>": 906,
      "<reserved_818>": 907,
      "<reserved_819>": 908,
      "<reserved_820>": 909,
      "<reserved_821>": 910,
      "<reserved_822>": 911,
      "<reserved_823>": 912,
      "<reserved_824>": 913,
      "<reserved_825>": 914,
      "<reserved_826>": 915,
      "<reserved_827>": 916,
      "<reserved_828>": 917,
      "<reserved_829>": 918,
      "<reserved_830>": 919,
      "<reserved_831>": 920,
      "<reserved_832>": 921,
      "<reserved_833>": 922,
      "<reserved_834>": 923,
      "<reserved_835>": 924,
      "<reserved_836>": 925,
      "<reserved_837>": 926,
      "<reserved_838>": 927,
      "<reserved_839>": 928,
      "<reserved_840>": 929,
      "<reserved_841>": 930,
      "<reserved_842>": 931,
      "<reserved_843>": 932,
      "<reserved_844>": 933,
      "<reserved_845>": 934,
      "<reserved_846>": 935,
      "<reserved_847>": 936,
      "<reserved_848>": 937,
      "<reserved_849>": 938,
      "<reserved_850>": 939,
      "<reserved_851>": 940,
      "<reserved_852>": 941,
      "<reserved_853>": 942,
      "<reserved_854>": 943,
      "<reserved_855>": 944,
      "<reserved_856>": 945,
      "<reserved_857>": 946,
      "<reserved_858>": 947,
      "<reserved_859>": 948,
      "<reserved_860>": 949,
      "<reserved_861>": 950,
      "<reserved_862>": 951,
      "<reserved_863>": 952,
      "<reserved_864>": 953,
      "<reserved_865>": 954,
      "<reserved_866>": 955,
      "<reserved_867>": 956,
      "<reserved_868>": 957,
      "<reserved_869>": 958,
      "<reserved_870>": 959,
      "<reserved_871>": 960,
      "<reserved_872>": 961,
      "<reserved_873>": 962,
      "<reserved_874>": 963,
      "<reserved_875>": 964,
      "<reserved_876>": 965,
      "<reserved_877>": 966,
      "<reserved_878>": 967,
      "<reserved_879>": 968,
      "<reserved_880>": 969,
      "<reserved_881>": 970,
      "<reserved_882>": 971,
      "<reserved_883>": 972,
      "<reserved_884>": 973,
      "<reserved_885>": 974,
      "<reserved_886>": 975,
      "<reserved_887>": 976,
      "<reserved_888>": 977,
      "<reserved_889>": 978,
      "<reserved_890>": 979,
      "<reserved_891>": 980,
      "<reserved_892>": 981,
      "<reserved_893>": 982,
      "<reserved_894>": 983,
      "<reserved_895>": 984,
      "<reserved_896>": 985,
      "<reserved_897>": 986,
      "<reserved_898>": 987,
      "<reserved_899>": 988,
      "<reserved_900>": 989,
      "<reserved_901>": 990,
      "<reserved_902>": 991,
      "<reserved_903>": 992,
      "<reserved_904>": 993,
      "<reserved_905>": 994,
      "<reserved_906>": 995,
      "<reserved_907>": 996,
      "<reserved_908>": 997,
      "<reserved_909>": 998,
      "<reserved_910>": 999,
      "<reserved_911>": 1000,
      "<reserved_912>": 1001,
      "<reserved_913>": 1002,
      "<reserved_914>": 1003,
      "<reserved_915>": 1004,
      "<reserved_916>": 1005,
      "<reserved_917>": 1006,
      "<reserved_918>": 1007,
      "<reserved_919>": 1008,
      "<reserved_920>": 1009,
      "<reserved_921>": 1010,
      "<reserved_922>": 1011,
      "<reserved_923>": 1012,
      "<reserved_924>": 1013,
      "<reserved_925>": 1014,
      "<reserved_926>": 1015,
      "<reserved_927>": 1016,
      "<reserved_928>": 1017,
      "<reserved_929>": 1018,
      "<reserved_930>": 1019,
      "<reserved_931>": 1020,
      "<reserved_932>": 1021,
      "<reserved_933>": 1022,
      "<reserved_934>": 1023,
      "<reserved_935>": 1024,
      "<reserved_936>": 1025,
      "<reserved_937>": 1026,
      "<reserved_938>": 1027,
      "<reserved_939>": 1028,
      "<reserved_940>": 1029,
      "<reserved_941>": 1030,
      "<reserved_942>": 1031,
      "<reserved_943>": 1032,
      "<reserved_944>": 1033,
      "<reserved_945>": 1034,
      "<reserved_946>": 1035,
      "<reserved_947>": 1036,
      "<reserved_948>": 1037,
      "<reserved_949>": 1038,
      "<reserved_950>": 1039,
      "<reserved_951>": 1040,
      "<reserved_952>": 1041,
      "<reserved_953>": 1042,
      "<reserved_954>": 1043,
      "<reserved_955>": 1044,
      "<reserved_956>": 1045,
      "<reserved_957>": 1046,
      "<reserved_958>": 1047,
      "<reserved_959>": 1048,
      "<reserved_960>": 1049,
      "<reserved_961>": 1050,
      "<reserved_962>": 1051,
      "<reserved_963>": 1052,
      "<reserved_964>": 1053,
      "<reserved_965>": 1054,
      "<reserved_966>": 1055,
      "<reserved_967>": 1056,
      "<reserved_968>": 1057,
      "<reserved_969>": 1058,
      "<reserved_970>": 1059,
      "<reserved_971>": 1060,
      "<reserved_972>": 1061,
      "<reserved_973>": 1062,
      "<reserved_974>": 1063,
      "<reserved_975>": 1064,
      "<reserved_976>": 1065,
      "<reserved_977>": 1066,
      "<reserved_978>": 1067,
      "<reserved_979>": 1068,
      "<reserved_980>": 1069,
      "<reserved_981>": 1070,
      "<reserved_982>": 1071,
      "<reserved_983>": 1072,
      "<reserved_984>": 1073,
      "<reserved_985>": 1074,
      "<reserved_986>": 1075,
      "<reserved_987>": 1076,
      "<reserved_988>": 1077,
      "<reserved_989>": 1078,
      "<reserved_990>": 1079,
      "<reserved_991>": 1080,
      "<reserved_992>": 1081,
      "<reserved_993>": 1082,
      "<reserved_994>": 1083,
      "<reserved_995>": 1084,
      "<reserved_996>": 1085,
      "<reserved_997>": 1086,
      "<reserved_998>": 1087,
      "<reserved_999>": 1088,
      "<0x00>": 1089,
      "<0x01>": 1090,
      "<0x02>": 1091,
      "<0x03>": 1092,
      "<0x04>": 1093,
      "<0x05>": 1094,
      "<0x06>": 1095,
      "<0x07>": 1096,
      "<0x08>": 1097,
      "<0x09>": 1098,
      "<0x0A>": 1099,
      "<0x0B>": 1100,
      "<0x0C>": 1101,
      "<0x0D>": 1102,
      "<0x0E>": 1103,
      "<0x0F>": 1104,
      "<0x10>": 1105,
      "<0x11>": 1106,
      "<0x12>": 1107,
      "<0x13>": 1108,
      "<0x14>": 1109,
      "<0x15>": 1110,
      "<0x16>": 1111,
      "<0x17>": 1112,
      "<0x18>": 1113,
      "<0x19>": 1114,
      "<0x1A>": 1115,
      "<0x1B>": 1116,
      "<0x1C>": 1117,
      "<0x1D>": 1118,
      "<0x1E>": 1119,
      "<0x1F>": 1120,
      "<0x20>": 1121,
      "<0x21>": 1122,
      "<0x22>": 1123,
      "<0x23>": 1124,
      "<0x24>": 1125,
      "<0x25>": 1126,
      "<0x26>": 1127,
      "<0x27>": 1128,
      "<0x28>": 1129,
      "<0x29>": 1130,
      "<0x2A>": 1131,
      "<0x2B>": 1132,
      "<0x2C>": 1133,
      "<0x2D>": 1134,
      "<0x2E>": 1135,
      "<0x2F>": 1136,
      "<0x30>": 1137,
      "<0x31>": 1138,
      "<0x32>": 1139,
      "<0x33>": 1140,
      "<0x34>": 1141,
      "<0x35>": 1142,
      "<0x36>": 1143,
      "<0x37>": 1144,
      "<0x38>": 1145,
      "<0x39>": 1146,
      "<0x3A>": 1147,
      "<0x3B>": 1148,
      "<0x3C>": 1149,
      "<0x3D>": 1150,
      "<0x3E>": 1151,
      "<0x3F>": 1152,
      "<0x40>": 1153,
      "<0x41>": 1154,
      "<0x42>": 1155,
      "<0x43>": 1156,
      "<0x44>": 1157,
      "<0x45>": 1158,
      "<0x46>": 1159,
      "<0x47>": 1160,
      "<0x48>": 1161,
      "<0x49>": 1162,
      "<0x4A>": 1163,
      "<0x4B>": 1164,
      "<0x4C>": 1165,
      "<0x4D>": 1166,
      "<0x4E>": 1167,
      "<0x4F>": 1168,
      "<0x50>": 1169,
      "<0x51>": 1170,
      "<0x52>": 1171,
      "<0x53>": 1172,
      "<0x54>": 1173,
      "<0x55>": 1174,
      "<0x56>": 1175,
      "<0x57>": 1176,
      "<0x58>": 1177,
      "<0x59>": 1178,
      "<0x5A>": 1179,
      "<0x5B>": 1180,
      "<0x5C>": 1181,
      "<0x5D>": 1182,
      "<0x5E>": 1183,
      "<0x5F>": 1184,
      "<0x60>": 1185,
      "<0x61>": 1186,
      "<0x62>": 1187,
      "<0x63>": 1188,
      "<0x64>": 1189,
      "<0x65>": 1190,
      "<0x66>": 1191,
      "<0x67>": 1192,
      "<0x68>": 1193,
      "<0x69>": 1194,
      "<0x6A>": 1195,
      "<0x6B>": 1196,
      "<0x6C>": 1197,
      "<0x6D>": 1198,
      "<0x6E>": 1199,
      "<0x6F>": 1200,
      "<0x70>": 1201,
      "<0x71>": 1202,
      "<0x72>": 1203,
      "<0x73>": 1204,
      "<0x74>": 1205,
      "<0x75>": 1206,
      "<0x76>": 1207,
      "<0x77>": 1208,
      "<0x78>": 1209,
      "<0x79>": 1210,
      "<0x7A>": 1211,
      "<0x7B>": 1212,
      "<0x7C>": 1213,
      "<0x7D>": 1214,
      "<0x7E>": 1215,
      "<0x7F>": 1216,
      "<0x80>": 1217,
      "<0x81>": 1218,
      "<0x82>": 1219,
      "<0x83>": 1220,
      "<0x84>": 1221,
      "<0x85>": 1222,
      "<0x86>": 1223,
      "<0x87>": 1224,
      "<0x88>": 1225,
      "<0x89>": 1226,
      "<0x8A>": 1227,
      "<0x8B>": 1228,
      "<0x8C>": 1229,
      "<0x8D>": 1230,
      "<0x8E>": 1231,
      "<0x8F>": 1232,
      "<0x90>": 1233,
      "<0x91>": 1234,
      "<0x92>": 1235,
      "<0x93>": 1236,
      "<0x94>": 1237,
      "<0x95>": 1238,
      "<0x96>": 1239,
      "<0x97>": 1240,
      "<0x98>": 1241,
      "<0x99>": 1242,
      "<0x9A>": 1243,
      "<0x9B>": 1244,
      "<0x9C>": 1245,
      "<0x9D>": 1246,
      "<0x9E>": 1247,
      "<0x9F>": 1248,
      "<0xA0>": 1249,
      "<0xA1>": 1250,
      "<0xA2>": 1251,
      "<0xA3>": 1252,
      "<0xA4>": 1253,
      "<0xA5>": 1254,
      "<0xA6>": 1255,
      "<0xA7>": 1256,
      "<0xA8>": 1257,
      "<0xA9>": 1258,
      "<0xAA>": 1259,
      "<0xAB>": 1260,
      "<0xAC>": 1261,
      "<0xAD>": 1262,
      "<0xAE>": 1263,
      "<0xAF>": 1264,
      "<0xB0>": 1265,
      "<0xB1>": 1266,
      "<0xB2>": 1267,
      "<0xB3>": 1268,
      "<0xB4>": 1269,
      "<0xB5>": 1270,
      "<0xB6>": 1271,
      "<0xB7>": 1272,
      "<0xB8>": 1273,
      "<0xB9>": 1274,
      "<0xBA>": 1275,
      "<0xBB>": 1276,
      "<0xBC>": 1277,
      "<0xBD>": 1278,
      "<0xBE>": 1279,
      "<0xBF>": 1280,
      "<0xC0>": 1281,
      "<0xC1>": 1282,
      "<0xC2>": 1283,
      "<0xC3>": 1284,
      "<0xC4>": 1285,
      "<0xC5>": 1286,
      "<0xC6>": 1287,
      "<0xC7>": 1288,
      "<0xC8>": 1289,
      "<0xC9>": 1290,
      "<0xCA>": 1291,
      "<0xCB>": 1292,
      "<0xCC>": 1293,
      "<0xCD>": 1294,
      "<0xCE>": 1295,
      "<0xCF>": 1296,
      "<0xD0>": 1297,
      "<0xD1>": 1298,
      "<0xD2>": 1299,
      "<0xD3>": 1300,
      "<0xD4>": 1301,
      "<0xD5>": 1302,
      "<0xD6>": 1303,
      "<0xD7>": 1304,
      "<0xD8>": 1305,
      "<0xD9>": 1306,
      "<0xDA>": 1307,
      "<0xDB>": 1308,
      "<0xDC>": 1309,
      "<0xDD>": 1310,
      "<0xDE>": 1311,
      "<0xDF>": 1312,
      "<0xE0>": 1313,
      "<0xE1>": 1314,
      "<0xE2>": 1315,
      "<0xE3>": 1316,
      "<0xE4>": 1317,
      "<0xE5>": 1318,
      "<0xE6>": 1319,
      "<0xE7>": 1320,
      "<0xE8>": 1321,
      "<0xE9>": 1322,
      "<0xEA>": 1323,
      "<0xEB>": 1324,
      "<0xEC>": 1325,
      "<0xED>": 1326,
      "<0xEE>": 1327,
      "<0xEF>": 1328,
      "<0xF0>": 1329,
      "<0xF1>": 1330,
      "<0xF2>": 1331,
      "<0xF3>": 1332,
      "<0xF4>": 1333,
      "<0xF5>": 1334,
      "<0xF6>": 1335,
      "<0xF7>": 1336,
      "<0xF8>": 1337,
      "<0xF9>": 1338,
      "<0xFA>": 1339,
      "<0xFB>": 1340,
      "<0xFC>": 1341,
      "<0xFD>": 1342,
      "<0xFE>": 1343,
      "<0xFF>": 1344,
      "▁▁": 1345,
      "▁t": 1346,
      "in": 1347,
      "▁a": 1348,
      "er": 1349,
      "on": 1350,
      "he": 1351,
      "re": 1352,
      "at": 1353,
      "▁▁▁▁": 1354,
      "or": 1355,
      "en": 1356,
      "▁s": 1357,
      "▁the": 1358,
      "es": 1359,
      "is": 1360,
      "▁c": 1361,
      "it": 1362,
      "an": 1363,
      "al": 1364,
      "▁o": 1365,
      "▁w": 1366,
      "ed": 1367,
      "▁f": 1368,
      "▁p": 1369,
      "ar": 1370,
      "ing": 1371,
      "nd": 1372,
      "ion": 1373,
      "ic": 1374,
      "ou": 1375,
      "▁b": 1376,
      "▁in": 1377,
      "le": 1378,
      "▁of": 1379,
      "▁m": 1380,
      "ro": 1381,
      "as": 1382,
      "▁d": 1383,
      "▁and": 1384,
      "▁to": 1385,
      "ent": 1386,
      "ct": 1387,
      "et": 1388,
      "st": 1389,
      "om": 1390,
      "el": 1391,
      "▁h": 1392,
      "▁th": 1393,
      "il": 1394,
      "▁▁▁▁▁▁▁▁": 1395,
      "▁re": 1396,
      "▁n": 1397,
      "am": 1398,
      "▁l": 1399,
      "im": 1400,
      "▁e": 1401,
      "id": 1402,
      "ut": 1403,
      "ol": 1404,
      "ac": 1405,
      "us": 1406,
      "ur": 1407,
      "▁T": 1408,
      "ation": 1409,
      "▁is": 1410,
      "ot": 1411,
      "ve": 1412,
      "▁S": 1413,
      "▁g": 1414,
      "\\\\": 1415,
      "ig": 1416,
      "▁I": 1417,
      "\\'": 1418,
      "▁C": 1419,
      "▁A": 1420,
      "▁for": 1421,
      "ad": 1422,
      "ul": 1423,
      "ow": 1424,
      "▁|": 1425,
      "▁(": 1426,
      "▁y": 1427,
      ";\\": 1428,
      "ith": 1429,
      "ver": 1430,
      "ay": 1431,
      "▁on": 1432,
      "▁st": 1433,
      "ly": 1434,
      "se": 1435,
      "if": 1436,
      "ce": 1437,
      "od": 1438,
      "ch": 1439,
      "th": 1440,
      "▁be": 1441,
      "ag": 1442,
      "ter": 1443,
      "un": 1444,
      "▁M": 1445,
      "ate": 1446,
      "est": 1447,
      "ir": 1448,
      "▁you": 1449,
      "▁with": 1450,
      "um": 1451,
      "▁P": 1452,
      "▁pro": 1453,
      "em": 1454,
      ")\\": 1455,
      "ab": 1456,
      "▁that": 1457,
      "▁an": 1458,
      "ort": 1459,
      "ri": 1460,
      "ap": 1461,
      "qu": 1462,
      "▁con": 1463,
      "op": 1464,
      "ers": 1465,
      "ist": 1466,
      "▁as": 1467,
      "ect": 1468,
      "▁B": 1469,
      "res": 1470,
      "▁v": 1471,
      "os": 1472,
      "oc": 1473,
      "▁al": 1474,
      "rom": 1475,
      "▁it": 1476,
      "▁wh": 1477,
      "ht": 1478,
      "▁D": 1479,
      "▁com": 1480,
      "ess": 1481,
      "ment": 1482,
      "and": 1483,
      "ub": 1484,
      "ain": 1485,
      "ere": 1486,
      "ill": 1487,
      "▁r": 1488,
      "ame": 1489,
      "▁R": 1490,
      "▁H": 1491,
      "▁ex": 1492,
      "▁F": 1493,
      "▁L": 1494,
      "▁W": 1495,
      "▁\"": 1496,
      "up": 1497,
      "iv": 1498,
      "ity": 1499,
      "port": 1500,
      "ec": 1501,
      "▁are": 1502,
      "pl": 1503,
      "▁{": 1504,
      "ew": 1505,
      "ex": 1506,
      "▁The": 1507,
      "▁or": 1508,
      "ke": 1509,
      "▁at": 1510,
      "ue": 1511,
      "ore": 1512,
      "nt": 1513,
      "og": 1514,
      "▁N": 1515,
      "ant": 1516,
      "end": 1517,
      "act": 1518,
      "ive": 1519,
      "▁by": 1520,
      "ef": 1521,
      "art": 1522,
      "▁was": 1523,
      "pt": 1524,
      "▁from": 1525,
      ",\\": 1526,
      "▁G": 1527,
      "ud": 1528,
      "▁E": 1529,
      ":\\": 1530,
      "▁us": 1531,
      "ies": 1532,
      "age": 1533,
      "ine": 1534,
      "▁▁▁▁▁▁▁▁▁▁▁▁": 1535,
      "▁this": 1536,
      "ass": 1537,
      "▁$": 1538,
      "ure": 1539,
      "ld": 1540,
      "all": 1541,
      "}\\": 1542,
      "ave": 1543,
      "▁he": 1544,
      ");\\": 1545,
      "ial": 1546,
      "com": 1547,
      "▁ch": 1548,
      "▁O": 1549,
      "ight": 1550,
      "cl": 1551,
      "ction": 1552,
      "nT": 1553,
      "▁we": 1554,
      "##": 1555,
      "ated": 1556,
      "iz": 1557,
      "ack": 1558,
      "ult": 1559,
      "▁tr": 1560,
      "ge": 1561,
      "ip": 1562,
      "our": 1563,
      "▁de": 1564,
      "int": 1565,
      "//": 1566,
      "for": 1567,
      "ell": 1568,
      "ust": 1569,
      "▁sh": 1570,
      "▁can": 1571,
      "ost": 1572,
      "▁not": 1573,
      "out": 1574,
      "▁\\\\": 1575,
      "per": 1576,
      "▁se": 1577,
      "ard": 1578,
      "are": 1579,
      "▁have": 1580,
      "▁im": 1581,
      "ase": 1582,
      "ical": 1583,
      "▁cl": 1584,
      "ind": 1585,
      "tr": 1586,
      "▁{\\": 1587,
      "**": 1588,
      "rou": 1589,
      "pe": 1590,
      "av": 1591,
      "ions": 1592,
      "▁le": 1593,
      "▁pl": 1594,
      "ff": 1595,
      "con": 1596,
      "able": 1597,
      "ath": 1598,
      "ib": 1599,
      "ide": 1600,
      "▁will": 1601,
      "▁comp": 1602,
      "ile": 1603,
      "ire": 1604,
      "urn": 1605,
      "ast": 1606,
      "ok": 1607,
      "▁res": 1608,
      "▁J": 1609,
      "ork": 1610,
      "ans": 1611,
      "▁U": 1612,
      "ice": 1613,
      "▁*": 1614,
      "▁your": 1615,
      "▁j": 1616,
      "▁ad": 1617,
      "▁sp": 1618,
      "ould": 1619,
      "ich": 1620,
      "▁k": 1621,
      "ak": 1622,
      "ign": 1623,
      "ime": 1624,
      "du": 1625,
      "ret": 1626,
      "ia": 1627,
      "▁ab": 1628,
      "ary": 1629,
      "ail": 1630,
      "▁\\": 1631,
      "▁Th": 1632,
      "ace": 1633,
      "执行": 1634,
      "ong": 1635,
      "ep": 1636,
      "elf": 1637,
      "ents": 1638,
      "one": 1639,
      "ber": 1640,
      "ations": 1641,
      "ear": 1642,
      "ens": 1643,
      "pro": 1644,
      "▁all": 1645,
      "▁In": 1646,
      "ence": 1647,
      "▁ap": 1648,
      "▁has": 1649,
      "▁int": 1650,
      "ext": 1651,
      ">\\": 1652,
      "ome": 1653,
      "nI": 1654,
      "ord": 1655,
      "so": 1656,
      "ang": 1657,
      "form": 1658,
      "ance": 1659,
      "und": 1660,
      "lic": 1661,
      "▁cont": 1662,
      "ata": 1663,
      "▁me": 1664,
      "cc": 1665,
      "▁|\\": 1666,
      "fer": 1667,
      "hen": 1668,
      "()": 1669,
      "▁▁▁▁▁▁▁▁▁▁▁▁▁▁▁▁": 1670,
      "ite": 1671,
      "人民": 1672,
      "enc": 1673,
      "ress": 1674,
      "▁do": 1675,
      "nA": 1676,
      "iss": 1677,
      "ject": 1678,
      "ous": 1679,
      "erv": 1680,
      "▁K": 1681,
      "ther": 1682,
      "str": 1683,
      "ach": 1684,
      "lo": 1685,
      "get": 1686,
      "ry": 1687,
      "name": 1688,
      "tp": 1689,
      "▁V": 1690,
      "▁ne": 1691,
      "vel": 1692,
      "ory": 1693,
      "▁un": 1694,
      "gh": 1695,
      "▁but": 1696,
      "▁which": 1697,
      "ors": 1698,
      "ll": 1699,
      "nThe": 1700,
      "ition": 1701,
      "nS": 1702,
      "▁per": 1703,
      "▁▁▁▁▁▁": 1704,
      "▁en": 1705,
      "公司": 1706,
      "▁out": 1707,
      "fr": 1708,
      "▁[": 1709,
      "ake": 1710,
      "▁\\'": 1711,
      "▁up": 1712,
      "▁qu": 1713,
      "ount": 1714,
      "▁new": 1715,
      "▁St": 1716,
      "▁go": 1717,
      "ook": 1718,
      "ug": 1719,
      "return": 1720,
      "ose": 1721,
      "▁ar": 1722,
      "ublic": 1723,
      "import": 1724,
      "ft": 1725,
      "▁dis": 1726,
      "▁were": 1727,
      "ple": 1728,
      "ys": 1729,
      "vers": 1730,
      "</": 1731,
      "\"\\": 1732,
      "▁so": 1733,
      "ode": 1734,
      "ild": 1735,
      "ally": 1736,
      "ype": 1737,
      "ph": 1738,
      "te": 1739,
      "▁str": 1740,
      "ree": 1741,
      "ks": 1742,
      "),": 1743,
      "一个": 1744,
      "▁one": 1745,
      "\":": 1746,
      "ound": 1747,
      "▁get": 1748,
      "pon": 1749,
      "own": 1750,
      "▁also": 1751,
      "▁inter": 1752,
      "▁more": 1753,
      "self": 1754,
      "gr": 1755,
      "{\\": 1756,
      "▁sc": 1757,
      "▁work": 1758,
      "▁pre": 1759,
      "oth": 1760,
      "clud": 1761,
      "被告": 1762,
      "ont": 1763,
      "]\\": 1764,
      "ra": 1765,
      "▁their": 1766,
      "reat": 1767,
      "unction": 1768,
      "ely": 1769,
      "ian": 1770,
      "eth": 1771,
      "▁'": 1772,
      "row": 1773,
      "very": 1774,
      "yst": 1775,
      "▁ev": 1776,
      "nimport": 1777,
      "ie": 1778,
      "__": 1779,
      "nR": 1780,
      "\",": 1781,
      "▁man": 1782,
      "ish": 1783,
      "ific": 1784,
      "rib": 1785,
      "▁<": 1786,
      "we": 1787,
      "▁Y": 1788,
      "▁part": 1789,
      "ob": 1790,
      "ms": 1791,
      "▁te": 1792,
      "▁Ch": 1793,
      "igh": 1794,
      "本院": 1795,
      "▁if": 1796,
      "low": 1797,
      "ings": 1798,
      "odel": 1799,
      "iew": 1800,
      "}{": 1801,
      "可以": 1802,
      "lect": 1803,
      "ov": 1804,
      "mer": 1805,
      "under": 1806,
      "▁our": 1807,
      "ark": 1808,
      "ick": 1809,
      "ond": 1810,
      "原告": 1811,
      "://": 1812,
      "▁li": 1813,
      "pr": 1814,
      "irst": 1815,
      "▁su": 1816,
      "▁time": 1817,
      "ystem": 1818,
      "▁stud": 1819,
      "▁pr": 1820,
      "ict": 1821,
      "ert": 1822,
      "ates": 1823,
      "wo": 1824,
      "▁ro": 1825,
      "▁It": 1826,
      "ock": 1827,
      "▁they": 1828,
      "ays": 1829,
      "▁des": 1830,
      "申请": 1831,
      "(\"": 1832,
      "nC": 1833,
      "ener": 1834,
      "▁about": 1835,
      "user": 1836,
      "ink": 1837,
      "▁class": 1838,
      "io": 1839,
      "ption": 1840,
      "ax": 1841,
      "▁any": 1842,
      "▁been": 1843,
      "ble": 1844,
      "▁ag": 1845,
      "nW": 1846,
      "ient": 1847,
      "use": 1848,
      "old": 1849,
      "ool": 1850,
      "ize": 1851,
      "put": 1852,
      "ng": 1853,
      "frac": 1854,
      "uc": 1855,
      "▁year": 1856,
      "olog": 1857,
      "ular": 1858,
      "▁his": 1859,
      "fter": 1860,
      "ne": 1861,
      "ater": 1862,
      "▁my": 1863,
      "ual": 1864,
      "▁over": 1865,
      "ove": 1866,
      "alue": 1867,
      "▁i": 1868,
      "erm": 1869,
      "ics": 1870,
      "ased": 1871,
      "▁who": 1872,
      "ull": 1873,
      "▁We": 1874,
      "▁other": 1875,
      "▁add": 1876,
      "▁under": 1877,
      "▁kn": 1878,
      "▁ind": 1879,
      "tern": 1880,
      "▁bet": 1881,
      "▁when": 1882,
      "▁comm": 1883,
      "▁col": 1884,
      "ss": 1885,
      "ix": 1886,
      "▁there": 1887,
      "les": 1888,
      "hed": 1889,
      "执行人": 1890,
      "▁am": 1891,
      "eld": 1892,
      "sc": 1893,
      "anc": 1894,
      "▁some": 1895,
      "▁use": 1896,
      "rit": 1897,
      "app": 1898,
      "▁set": 1899,
      "▁This": 1900,
      "▁rec": 1901,
      "):\\": 1902,
      "▁dif": 1903,
      "eg": 1904,
      "ative": 1905,
      "▁ass": 1906,
      "ied": 1907,
      "▁act": 1908,
      "sh": 1909,
      "▁than": 1910,
      "中国": 1911,
      "▁exp": 1912,
      "ange": 1913,
      "▁function": 1914,
      "▁num": 1915,
      "▁ob": 1916,
      "roup": 1917,
      "oint": 1918,
      "▁no": 1919,
      "ari": 1920,
      "▁:": 1921,
      "xa": 1922,
      "nP": 1923,
      "▁sup": 1924,
      "http": 1925,
      "▁sub": 1926,
      "aw": 1927,
      "法院": 1928,
      "▁need": 1929,
      "▁&": 1930,
      "▁import": 1931,
      "▁its": 1932,
      "▁first": 1933,
      "▁prov": 1934,
      "sp": 1935,
      "▁reg": 1936,
      "ield": 1937,
      "nf": 1938,
      "▁two": 1939,
      "▁ph": 1940,
      "自己": 1941,
      "ution": 1942,
      "▁pe": 1943,
      "ments": 1944,
      "▁acc": 1945,
      "arch": 1946,
      "cre": 1947,
      "▁eff": 1948,
      "▁x": 1949,
      "als": 1950,
      "▁into": 1951,
      "▁would": 1952,
      "▁fe": 1953,
      "ility": 1954,
      "▁co": 1955,
      "^{": 1956,
      "第一": 1957,
      "ade": 1958,
      "ating": 1959,
      "▁spec": 1960,
      "ty": 1961,
      "def": 1962,
      "issue": 1963,
      "velop": 1964,
      "arg": 1965,
      "ning": 1966,
      "let": 1967,
      "public": 1968,
      "err": 1969,
      "▁includ": 1970,
      "▁trans": 1971,
      "▁like": 1972,
      "▁rel": 1973,
      "ople": 1974,
      "工作": 1975,
      "▁pat": 1976,
      "▁ac": 1977,
      "有限": 1978,
      "pos": 1979,
      "▁how": 1980,
      "▁high": 1981,
      "▁may": 1982,
      "▁def": 1983,
      "par": 1984,
      "▁requ": 1985,
      "ns": 1986,
      "nM": 1987,
      "ational": 1988,
      "问题": 1989,
      "▁produ": 1990,
      "▁–": 1991,
      "rap": 1992,
      "人民法院": 1993,
      "orm": 1994,
      "▁inv": 1995,
      "line": 1996,
      "urre": 1997,
      "ise": 1998,
      "我们": 1999,
      "ER": 2000,
      "▁sa": 2001,
      "▁off": 2002,
      "▁had": 2003,
      "oy": 2004,
      "nF": 2005,
      "进行": 2006,
      "nc": 2007,
      "▁differ": 2008,
      "▁these": 2009,
      "Ex": 2010,
      "$$": 2011,
      "plic": 2012,
      "cess": 2013,
      "lp": 2014,
      "uct": 2015,
      "to": 2016,
      "▁play": 2017,
      "▁data": 2018,
      "ON": 2019,
      "▁pos": 2020,
      "ures": 2021,
      "inal": 2022,
      "▁Un": 2023,
      "▁what": 2024,
      "▁only": 2025,
      "()\\": 2026,
      "ences": 2027,
      "set": 2028,
      "_{": 2029,
      "ities": 2030,
      "hat": 2031,
      "▁det": 2032,
      "::": 2033,
      "nB": 2034,
      "▁result": 2035,
      "ev": 2036,
      "ues": 2037,
      "round": 2038,
      "uild": 2039,
      "nH": 2040,
      "没有": 2041,
      "▁just": 2042,
      "▁cons": 2043,
      "hes": 2044,
      "▁op": 2045,
      "诉讼": 2046,
      "Pro": 2047,
      "riv": 2048,
      "ym": 2049,
      "St": 2050,
      "▁em": 2051,
      "▁dec": 2052,
      "ices": 2053,
      "▁them": 2054,
      "▁after": 2055,
      "(\\'": 2056,
      "ages": 2057,
      "log": 2058,
      "ident": 2059,
      "有限公司": 2060,
      "rough": 2061,
      "什么": 2062,
      "▁He": 2063,
      "oid": 2064,
      "ible": 2065,
      "ser": 2066,
      "▁using": 2067,
      "▁sign": 2068,
      "ense": 2069,
      "▁system": 2070,
      "▁form": 2071,
      "ons": 2072,
      "ator": 2073,
      "\",\\": 2074,
      "ames": 2075,
      "▁test": 2076,
      "▁loc": 2077,
      "▁Pro": 2078,
      "its": 2079,
      "时间": 2080,
      "uring": 2081,
      "right": 2082,
      "▁develop": 2083,
      "ethod": 2084,
      "▁serv": 2085,
      "▁used": 2086,
      "▁show": 2087,
      "key": 2088,
      "nL": 2089,
      "username": 2090,
      "ollow": 2091,
      "ox": 2092,
      "nTh": 2093,
      "▁sec": 2094,
      "ween": 2095,
      "ients": 2096,
      "IN": 2097,
      "uth": 2098,
      "▁}": 2099,
      "▁her": 2100,
      "规定": 2101,
      "atch": 2102,
      "cont": 2103,
      "▁people": 2104,
      "▁pres": 2105,
      "▁dist": 2106,
      "nD": 2107,
      "ck": 2108,
      "就是": 2109,
      "▁then": 2110,
      "▁help": 2111,
      "hem": 2112,
      "this": 2113,
      "read": 2114,
      "ause": 2115,
      "ash": 2116,
      "cept": 2117,
      "eng": 2118,
      "▁well": 2119,
      "ner": 2120,
      "▁most": 2121,
      "▁sim": 2122,
      "▁br": 2123,
      "atic": 2124,
      "ting": 2125,
      "yp": 2126,
      "▁know": 2127,
      "▁through": 2128,
      "min": 2129,
      "tring": 2130,
      "▁between": 2131,
      "▁where": 2132,
      "▁cell": 2133,
      "der": 2134,
      "▁ret": 2135,
      "▁pol": 2136,
      "▁@": 2137,
      "irect": 2138,
      "ited": 2139,
      "▁rem": 2140,
      "();\\": 2141,
      "▁Com": 2142,
      "▁cre": 2143,
      "▁make": 2144,
      "\\\\(": 2145,
      "air": 2146,
      "▁should": 2147,
      "▁`": 2148,
      "work": 2149,
      "这个": 2150,
      "▁exper": 2151,
      "fig": 2152,
      "In": 2153,
      "▁sur": 2154,
      "被执行人": 2155,
      "管理": 2156,
      "ood": 2157,
      "▁model": 2158,
      "urrent": 2159,
      "ale": 2160,
      "ute": 2161,
      "son": 2162,
      "▁find": 2163,
      "▁end": 2164,
      "\\',": 2165,
      "rt": 2166,
      "▁sol": 2167,
      "ily": 2168,
      "裁定": 2169,
      "oot": 2170,
      "amp": 2171,
      "发展": 2172,
      "RE": 2173,
      "ars": 2174,
      "ward": 2175,
      "ower": 2176,
      "}\\\\": 2177,
      "ious": 2178,
      "▁ser": 2179,
      "▁fil": 2180,
      "over": 2181,
      "class": 2182,
      "▁att": 2183,
      "fore": 2184,
      "▁follow": 2185,
      "any": 2186,
      "ines": 2187,
      "raph": 2188,
      "▁number": 2189,
      "ough": 2190,
      "ml": 2191,
      "▁sm": 2192,
      "▁look": 2193,
      "▁bl": 2194,
      "nO": 2195,
      "▁inst": 2196,
      "▁gr": 2197,
      "▁see": 2198,
      "ee": 2199,
      "ature": 2200,
      "itle": 2201,
      "ized": 2202,
      "vent": 2203,
      "▁min": 2204,
      "服务": 2205,
      "gram": 2206,
      "ource": 2207,
      "Qu": 2208,
      "day": 2209,
      "▁vari": 2210,
      "br": 2211,
      "ery": 2212,
      "▁such": 2213,
      "AT": 2214,
      "az": 2215,
      "法律": 2216,
      "企业": 2217,
      "▁effect": 2218,
      "The": 2219,
      "▁gener": 2220,
      "中华": 2221,
      "cent": 2222,
      "▁different": 2223,
      "formation": 2224,
      "ts": 2225,
      "orld": 2226,
      "▁ent": 2227,
      "estion": 2228,
      "view": 2229,
      "ier": 2230,
      "ank": 2231,
      "ton": 2232,
      "ins": 2233,
      "ann": 2234,
      "▁want": 2235,
      "▁group": 2236,
      "▁back": 2237,
      "▁/": 2238,
      "oci": 2239,
      "第二": 2240,
      "####": 2241,
      "▁cor": 2242,
      "▁years": 2243,
      "blem": 2244,
      "▁par": 2245,
      "▁inf": 2246,
      "ection": 2247,
      "const": 2248,
      "('": 2249,
      "chn": 2250,
      "cri": 2251,
      "）\\": 2252,
      "pect": 2253,
      "技术": 2254,
      "ider": 2255,
      "▁di": 2256,
      "和国": 2257,
      "▁name": 2258,
      "comment": 2259,
      "val": 2260,
      "ren": 2261,
      "▁mon": 2262,
      "/\\": 2263,
      "▁said": 2264,
      "lease": 2265,
      "ined": 2266,
      "SU": 2267,
      "IT": 2268,
      "ases": 2269,
      "▁Al": 2270,
      "▁she": 2271,
      "land": 2272,
      "如果": 2273,
      "▁bec": 2274,
      "NA": 2275,
      "▁self": 2276,
      "ired": 2277,
      "▁Tr": 2278,
      "▁start": 2279,
      "https": 2280,
      "▁med": 2281,
      "data": 2282,
      "nIn": 2283,
      "div": 2284,
      "ful": 2285,
      "▁could": 2286,
      "▁fr": 2287,
      "▁long": 2288,
      "add": 2289,
      "▁equ": 2290,
      "▁every": 2291,
      "▁You": 2292,
      "共和国": 2293,
      "ify": 2294,
      "▁fl": 2295,
      "ric": 2296,
      "ement": 2297,
      "▁incre": 2298,
      "ample": 2299,
      "ality": 2300,
      "ince": 2301,
      "▁many": 2302,
      "▁found": 2303,
      "ife": 2304,
      "gan": 2305,
      "hip": 2306,
      "nN": 2307,
      "ists": 2308,
      "alth": 2309,
      "ever": 2310,
      "人民共和国": 2311,
      "ST": 2312,
      "ault": 2313,
      "▁call": 2314,
      "中华人民共和国": 2315,
      "▁mod": 2316,
      "wn": 2317,
      "ced": 2318,
      "▁both": 2319,
      "ument": 2320,
      "▁mem": 2321,
      "ray": 2322,
      "ically": 2323,
      "AR": 2324,
      "ole": 2325,
      "ology": 2326,
      "red": 2327,
      "))": 2328,
      "ody": 2329,
      "民事": 2330,
      "file": 2331,
      "erson": 2332,
      "▁▁▁▁▁▁▁▁▁▁": 2333,
      "heck": 2334,
      "▁anal": 2335,
      "▁now": 2336,
      "uch": 2337,
      "imes": 2338,
      "▁app": 2339,
      "▁char": 2340,
      "rol": 2341,
      "',": 2342,
      "EN": 2343,
      "lection": 2344,
      "▁value": 2345,
      "comm": 2346,
      "判决": 2347,
      "ead": 2348,
      "itt": 2349,
      "led": 2350,
      "▁each": 2351,
      "▁right": 2352,
      "研究": 2353,
      "▁fact": 2354,
      "orn": 2355,
      "ization": 2356,
      "▁main": 2357,
      "▁appro": 2358,
      "ron": 2359,
      "▁design": 2360,
      "▁process": 2361,
      "▁very": 2362,
      "requ": 2363,
      "▁ed": 2364,
      "ivers": 2365,
      "▁$$": 2366,
      "▁study": 2367,
      "▁car": 2368,
      "▁way": 2369,
      "▁av": 2370,
      "ik": 2371,
      "▁method": 2372,
      "▁does": 2373,
      "▁val": 2374,
      "sup": 2375,
      "▁read": 2376,
      "ience": 2377,
      "▁respon": 2378,
      "ets": 2379,
      "](": 2380,
      "▁list": 2381,
      "of": 2382,
      "▁gu": 2383,
      "text": 2384,
      "▁post": 2385,
      "load": 2386,
      "▁Ex": 2387,
      "▁patients": 2388,
      "alse": 2389,
      "Name": 2390,
      "col": 2391,
      "ision": 2392,
      "ule": 2393,
      "chool": 2394,
      "aking": 2395,
      "sub": 2396,
      "version": 2397,
      "需要": 2398,
      "▁run": 2399,
      "▁ext": 2400,
      "ware": 2401,
      "▁est": 2402,
      "ttp": 2403,
      "▁New": 2404,
      "ten": 2405,
      "ared": 2406,
      "▁great": 2407,
      "的人": 2408,
      "ulation": 2409,
      "OR": 2410,
      "other": 2411,
      "▁point": 2412,
      "way": 2413,
      "meric": 2414,
      "▁disc": 2415,
      "search": 2416,
      "ants": 2417,
      "ected": 2418,
      "▁Sh": 2419,
      "ah": 2420,
      "因为": 2421,
      "ason": 2422,
      "不是": 2423,
      "▁don": 2424,
      "iqu": 2425,
      "▁An": 2426,
      "信息": 2427,
      "efer": 2428,
      "dd": 2429,
      "essage": 2430,
      "Cont": 2431,
      "使用": 2432,
      "▁$\\\\": 2433,
      "▁information": 2434,
      "fil": 2435,
      "ional": 2436,
      "▁rep": 2437,
      "▁here": 2438,
      "▁fam": 2439,
      "iness": 2440,
      "ouse": 2441,
      "▁If": 2442,
      "ential": 2443,
      "path": 2444,
      "the": 2445,
      "▁art": 2446,
      "yn": 2447,
      "**\\": 2448,
      "根据": 2449,
      "man": 2450,
      "\"\"": 2451,
      "▁activ": 2452,
      "ps": 2453,
      "系统": 2454,
      "产品": 2455,
      "▁support": 2456,
      "日期": 2457,
      "▁giv": 2458,
      "▁during": 2459,
      "opy": 2460,
      "▁same": 2461,
      "ateg": 2462,
      "▁file": 2463,
      "type": 2464,
      "通过": 2465,
      "print": 2466,
      "ished": 2467,
      "ral": 2468,
      "ek": 2469,
      "审判": 2470,
      "▁good": 2471,
      "IG": 2472,
      "▁line": 2473,
      "所以": 2474,
      "date": 2475,
      "ural": 2476,
      "icense": 2477,
      "▁even": 2478,
      "SE": 2479,
      "###": 2480,
      "中文": 2481,
      "else": 2482,
      "nE": 2483,
      "\")": 2484,
      "uss": 2485,
      "}$": 2486,
      "▁type": 2487,
      "ency": 2488,
      "▁level": 2489,
      "de": 2490,
      "her": 2491,
      "认为": 2492,
      "▁because": 2493,
      "yl": 2494,
      "▁bel": 2495,
      "▁>": 2496,
      "cer": 2497,
      "▁%": 2498,
      "aining": 2499,
      "url": 2500,
      "ME": 2501,
      "主要": 2502,
      "▁techn": 2503,
      "nfrom": 2504,
      "▁perform": 2505,
      "▁state": 2506,
      "▁cent": 2507,
      "ium": 2508,
      "oh": 2509,
      "▁met": 2510,
      "rivate": 2511,
      "bers": 2512,
      "▁program": 2513,
      "ified": 2514,
      "▁project": 2515,
      "提供": 2516,
      "▁again": 2517,
      "▁Re": 2518,
      "ask": 2519,
      "action": 2520,
      "ains": 2521,
      "▁For": 2522,
      "wh": 2523,
      "▁down": 2524,
      "时候": 2525,
      "教育": 2526,
      "▁mat": 2527,
      "ces": 2528,
      "roll": 2529,
      "▁current": 2530,
      "资料": 2531,
      "play": 2532,
      "▁before": 2533,
      "▁Cl": 2534,
      "▁err": 2535,
      "lex": 2536,
      "Id": 2537,
      "bs": 2538,
      "选择": 2539,
      "▁z": 2540,
      "AN": 2541,
      "▁partic": 2542,
      "如下": 2543,
      "ustom": 2544,
      "ters": 2545,
      "pp": 2546,
      "▁gen": 2547,
      "▁Ar": 2548,
      "aj": 2549,
      "ved": 2550,
      "▁mult": 2551,
      "ams": 2552,
      "back": 2553,
      "▁second": 2554,
      "▁dep": 2555,
      "],": 2556,
      "ually": 2557,
      "▁best": 2558,
      "Con": 2559,
      "▁being": 2560,
      "test": 2561,
      "eferences": 2562,
      "▁made": 2563,
      "bl": 2564,
      "usiness": 2565,
      "▁three": 2566,
      "参考": 2567,
      "▁care": 2568,
      "▁provid": 2569,
      "大学": 2570,
      "Com": 2571,
      "▁Z": 2572,
      "▁“": 2573,
      "****": 2574,
      "String": 2575,
      "ior": 2576,
      "ID": 2577,
      "ote": 2578,
      "▁did": 2579,
      "ression": 2580,
      "▁mark": 2581,
      "可能": 2582,
      "ism": 2583,
      "▁Con": 2584,
      "dfrac": 2585,
      "CT": 2586,
      "▁hand": 2587,
      "yle": 2588,
      "▁direct": 2589,
      "ribut": 2590,
      "ital": 2591,
      "社会": 2592,
      "ability": 2593,
      "ccess": 2594,
      "▁product": 2595,
      "▁while": 2596,
      "sq": 2597,
      "wer": 2598,
      "▁count": 2599,
      "他们": 2600,
      "发生": 2601,
      "nReferences": 2602,
      "▁dr": 2603,
      "国家": 2604,
      "ithub": 2605,
      "ackage": 2606,
      "▁lead": 2607,
      "▁those": 2608,
      "生活": 2609,
      "▁build": 2610,
      "ane": 2611,
      "方法": 2612,
      "▁fin": 2613,
      "LE": 2614,
      "acter": 2615,
      "clude": 2616,
      "▁open": 2617,
      "▁*/\\": 2618,
      "arn": 2619,
      ",\"": 2620,
      "审理": 2621,
      "情况": 2622,
      "ends": 2623,
      "▁results": 2624,
      "abel": 2625,
      "ball": 2626,
      "但是": 2627,
      "nG": 2628,
      "▁think": 2629,
      "py": 2630,
      "using": 2631,
      "nThis": 2632,
      "诉讼法": 2633,
      "现在": 2634,
      "▁non": 2635,
      "▁much": 2636,
      "▁ins": 2637,
      "ross": 2638,
      "经济": 2639,
      "的一": 2640,
      "arm": 2641,
      "be": 2642,
      "var": 2643,
      "▁child": 2644,
      "by": 2645,
      "net": 2646,
      "org": 2647,
      "face": 2648,
      "是一": 2649,
      "▁report": 2650,
      "alc": 2651,
      "▁last": 2652,
      "▁#": 2653,
      "提出": 2654,
      "▁How": 2655,
      "▁commun": 2656,
      "icro": 2657,
      "itive": 2658,
      "▁cap": 2659,
      "ength": 2660,
      "▁take": 2661,
      "ained": 2662,
      "lish": 2663,
      "▁del": 2664,
      "\")\\": 2665,
      "atus": 2666,
      "ograph": 2667,
      "已经": 2668,
      "设计": 2669,
      "▁poss": 2670,
      "▁present": 2671,
      "ta": 2672,
      "▁invest": 2673,
      "come": 2674,
      "▁order": 2675,
      "▁day": 2676,
      "IC": 2677,
      "▁书": 2678,
      "▁oper": 2679,
      "上诉": 2680,
      "ows": 2681,
      "equ": 2682,
      "ger": 2683,
      "▁som": 2684,
      "▁As": 2685,
      "▁research": 2686,
      "分析": 2687,
      "出生": 2688,
      "stand": 2689,
      "▁opt": 2690,
      "ervice": 2691,
      "\\\\)": 2692,
      "time": 2693,
      "arget": 2694,
      "▁iss": 2695,
      "vir": 2696,
      "▁home": 2697,
      "还是": 2698,
      "▁vis": 2699,
      "ather": 2700,
      "▁own": 2701,
      "▁return": 2702,
      "▁ant": 2703,
      "github": 2704,
      "▁top": 2705,
      "代表": 2706,
      "▁Americ": 2707,
      "uthor": 2708,
      "▁sk": 2709,
      "ailable": 2710,
      "html": 2711,
      "▁http": 2712,
      "math": 2713,
      "ness": 2714,
      "▁treat": 2715,
      "Tr": 2716,
      "▁proper": 2717,
      "▁small": 2718,
      "引用": 2719,
      "▁cr": 2720,
      "))\\": 2721,
      "▁applic": 2722,
      "EF": 2723,
      "汉族": 2724,
      "内容": 2725,
      "left": 2726,
      "rr": 2727,
      "ma": 2728,
      "ugg": 2729,
      "▁chang": 2730,
      "ively": 2731,
      "▁Sc": 2732,
      "duct": 2733,
      "oad": 2734,
      "util": 2735,
      "ception": 2736,
      "iversity": 2737,
      "▁And": 2738,
      "Th": 2739,
      "要求": 2740,
      "new": 2741,
      "ream": 2742,
      "市场": 2743,
      "▁pop": 2744,
      "▁sing": 2745,
      "orth": 2746,
      "Cl": 2747,
      "▁De": 2748,
      "ES": 2749,
      "▁without": 2750,
      "akes": 2751,
      "▁ident": 2752,
      "出版": 2753,
      "▁including": 2754,
      "AS": 2755,
      "ems": 2756,
      "ysis": 2757,
      "▁Col": 2758,
      "▁true": 2759,
      "▁health": 2760,
      "过程": 2761,
      "其他": 2762,
      "reg": 2763,
      "▁Ind": 2764,
      "▁_": 2765,
      "med": 2766,
      "string": 2767,
      "bin": 2768,
      "申请执行人": 2769,
      "ister": 2770,
      "}}": 2771,
      "▁string": 2772,
      "引用日期": 2773,
      "dit": 2774,
      "start": 2775,
      "uro": 2776,
      "lement": 2777,
      "Ch": 2778,
      "▁path": 2779,
      "▁elect": 2780,
      "List": 2781,
      "▁tri": 2782,
      "▁cle": 2783,
      "代理": 2784,
      "▁X": 2785,
      "▁based": 2786,
      "▁person": 2787,
      "AL": 2788,
      "alk": 2789,
      "ats": 2790,
      "cription": 2791,
      "\">": 2792,
      "include": 2793,
      "\">\\": 2794,
      "民事诉讼法": 2795,
      "erg": 2796,
      "ava": 2797,
      "tract": 2798,
      "”\\": 2799,
      "▁following": 2800,
      "yt": 2801,
      "ives": 2802,
      "Type": 2803,
      "Res": 2804,
      "审判员": 2805,
      "reen": 2806,
      "ths": 2807,
      "ocument": 2808,
      "▁world": 2809,
      "▁life": 2810,
      "arge": 2811,
      "oin": 2812,
      "中华人民共和国民事诉讼法": 2813,
      "▁Wh": 2814,
      "ivid": 2815,
      "li": 2816,
      "word": 2817,
      "▁signific": 2818,
      "ety": 2819,
      "▁ke": 2820,
      "omen": 2821,
      "less": 2822,
      "▁中文": 2823,
      "sqrt": 2824,
      "ey": 2825,
      "▁meas": 2826,
      "pose": 2827,
      "▁const": 2828,
      "irc": 2829,
      "▁Res": 2830,
      "olution": 2831,
      "▁struct": 2832,
      "amet": 2833,
      "▁business": 2834,
      "▁aut": 2835,
      "▁Pl": 2836,
      "▁eas": 2837,
      "▁ear": 2838,
      "都是": 2839,
      "▁team": 2840,
      "ref": 2841,
      "por": 2842,
      "▁pass": 2843,
      "▁case": 2844,
      "文化": 2845,
      "ven": 2846,
      "ury": 2847,
      "▁bu": 2848,
      "▁free": 2849,
      "ration": 2850,
      "aces": 2851,
      "▁writ": 2852,
      "很多": 2853,
      "中的": 2854,
      "财产": 2855,
      "oard": 2856,
      "ways": 2857,
      "▁adv": 2858,
      "项目": 2859,
      "人的": 2860,
      "▁Fr": 2861,
      "▁License": 2862,
      "▁中文名": 2863,
      "▁field": 2864,
      "▁rece": 2865,
      "ission": 2866,
      "学习": 2867,
      "二〇": 2868,
      "},\\": 2869,
      "▁Sp": 2870,
      "aut": 2871,
      "▁available": 2872,
      "▁control": 2873,
      "au": 2874,
      "urs": 2875,
      "aper": 2876,
      "rem": 2877,
      "SUP": 2878,
      "▁contin": 2879,
      "▁cells": 2880,
      "np": 2881,
      "学生": 2882,
      "二〇一": 2883,
      "数据": 2884,
      "▁place": 2885,
      "nY": 2886,
      "或者": 2887,
      "ina": 2888,
      "▁provide": 2889,
      "依照": 2890,
      "dis": 2891,
      "ache": 2892,
      "建设": 2893,
      "专业": 2894,
      "mod": 2895,
      "ape": 2896,
      "不同": 2897,
      "ternal": 2898,
      "▁Is": 2899,
      "lob": 2900,
      "开始": 2901,
      "▁real": 2902,
      "ush": 2903,
      "][": 2904,
      "▁problem": 2905,
      "▁dem": 2906,
      "向本院": 2907,
      "index": 2908,
      "icle": 2909,
      "rc": 2910,
      "▁still": 2911,
      "ived": 2912,
      "作者": 2913,
      "▁around": 2914,
      "▁tem": 2915,
      "js": 2916,
      "FIG": 2917,
      "lete": 2918,
      "▁cour": 2919,
      "▁stand": 2920,
      "ope": 2921,
      "书记": 2922,
      "\\'\\": 2923,
      "viron": 2924,
      "世界": 2925,
      "aster": 2926,
      "▁hum": 2927,
      "not": 2928,
      "▁organ": 2929,
      "▁expl": 2930,
      "vert": 2931,
      "这样": 2932,
      "outh": 2933,
      "cm": 2934,
      "ploy": 2935,
      "inks": 2936,
      "til": 2937,
      "活动": 2938,
      "rite": 2939,
      "▁key": 2940,
      "知道": 2941,
      "参考资料": 2942,
      "tem": 2943,
      "▁Ph": 2944,
      "▁log": 2945,
      "ww": 2946,
      "▁significant": 2947,
      "resent": 2948,
      "工程": 2949,
      "init": 2950,
      "ails": 2951,
      "银行": 2952,
      "{\\\\": 2953,
      "▁book": 2954,
      "▁grow": 2955,
      "▁development": 2956,
      "▁area": 2957,
      "关于": 2958,
      "▁impro": 2959,
      "▁ve": 2960,
      "▁determ": 2961,
      "重要": 2962,
      "▁lim": 2963,
      "iving": 2964,
      "▁Let": 2965,
      "att": 2966,
      "aving": 2967,
      "els": 2968,
      "list": 2969,
      "以及": 2970,
      "arent": 2971,
      "▁There": 2972,
      "的是": 2973,
      "ots": 2974,
      "ndef": 2975,
      "ification": 2976,
      "▁sever": 2977,
      "af": 2978,
      "安全": 2979,
      "▁important": 2980,
      "rel": 2981,
      "angu": 2982,
      "关系": 2983,
      "oss": 2984,
      "www": 2985,
      "方式": 2986,
      "好的": 2987,
      "ait": 2988,
      "▁Se": 2989,
      "本案": 2990,
      "▁mus": 2991,
      "游戏": 2992,
      "▁redu": 2993,
      "▁family": 2994,
      "▁him": 2995,
      "crib": 2996,
      "▁conf": 2997,
      "▁bi": 2998,
      "中心": 2999,
      "mun": 3000,
      "部分": 3001,
      "▁addition": 3002,
      "na": 3003,
      "value": 3004,
      "▁head": 3005,
      "▁定": 3006,
      "opt": 3007,
      "nal": 3008,
      "),\\": 3009,
      "依法": 3010,
      "▁local": 3011,
      "比较": 3012,
      "▁Le": 3013,
      "lu": 3014,
      "▁To": 3015,
      "ott": 3016,
      "struct": 3017,
      "影响": 3018,
      "▁within": 3019,
      "▁change": 3020,
      "▁since": 3021,
      "uck": 3022,
      "——": 3023,
      "ique": 3024,
      "自己的": 3025,
      "lished": 3026,
      "ately": 3027,
      "不能": 3028,
      "ght": 3029,
      "▁All": 3030,
      "▁object": 3031,
      "发现": 3032,
      "▁manag": 3033,
      "同时": 3034,
      "▁imp": 3035,
      "▁consider": 3036,
      "怎么": 3037,
      "vious": 3038,
      "model": 3039,
      "(\\": 3040,
      "▁given": 3041,
      "rror": 3042,
      "▁associ": 3043,
      "ION": 3044,
      "相关": 3045,
      "▁,": 3046,
      "IS": 3047,
      "生产": 3048,
      "▁public": 3049,
      "▁beh": 3050,
      "etwork": 3051,
      "▁Q": 3052,
      "▁pot": 3053,
      "▁bas": 3054,
      "▁So": 3055,
      "egr": 3056,
      "Data": 3057,
      "▁custom": 3058,
      "▁service": 3059,
      "▁user": 3060,
      "ler": 3061,
      "nEx": 3062,
      "▁University": 3063,
      "',\\": 3064,
      "▁void": 3065,
      "UT": 3066,
      "▁What": 3067,
      "计算": 3068,
      "▁require": 3069,
      "▁next": 3070,
      "num": 3071,
      "▁sit": 3072,
      "▁bre": 3073,
      "第一百": 3074,
      "ember": 3075,
      "fess": 3076,
      "▁specific": 3077,
      "▁code": 3078,
      "▁try": 3079,
      "ently": 3080,
      "▁cou": 3081,
      "AC": 3082,
      "北京": 3083,
      "▁power": 3084,
      "ird": 3085,
      "▁ide": 3086,
      "\"\"\"\\": 3087,
      "mp": 3088,
      "▁view": 3089,
      "能力": 3090,
      "方面": 3091,
      "umm": 3092,
      "Question": 3093,
      "▁must": 3094,
      "字第": 3095,
      "ftware": 3096,
      "ern": 3097,
      "▁really": 3098,
      "被告人": 3099,
      "ename": 3100,
      "/**\\": 3101,
      "lev": 3102,
      "▁interest": 3103,
      "也是": 3104,
      "▁school": 3105,
      "head": 3106,
      "然后": 3107,
      "一定": 3108,
      "▁sl": 3109,
      "▁hist": 3110,
      "nWe": 3111,
      "export": 3112,
      "结果": 3113,
      "▁let": 3114,
      "osed": 3115,
      "co": 3116,
      "▁appe": 3117,
      "参加": 3118,
      "met": 3119,
      "如何": 3120,
      "epend": 3121,
      "▁understand": 3122,
      "网络": 3123,
      "作为": 3124,
      "▁pur": 3125,
      "▁water": 3126,
      "ples": 3127,
      "go": 3128,
      "▁week": 3129,
      "AP": 3130,
      "RO": 3131,
      "履行": 3132,
      "▁version": 3133,
      "环境": 3134,
      "的时候": 3135,
      "itor": 3136,
      "纠纷": 3137,
      "▁range": 3138,
      "\\')\\": 3139,
      "ological": 3140,
      "▁At": 3141,
      "uff": 3142,
      "ormal": 3143,
      "\\',\\": 3144,
      "▁create": 3145,
      "pace": 3146,
      "nclass": 3147,
      "unc": 3148,
      "期间": 3149,
      "支持": 3150,
      "▁four": 3151,
      "aff": 3152,
      "order": 3153,
      "▁On": 3154,
      "▁few": 3155,
      "\");\\": 3156,
      "idth": 3157,
      "nREF": 3158,
      "ured": 3159,
      "iver": 3160,
      "thon": 3161,
      "▁better": 3162,
      "▁But": 3163,
      "程序": 3164,
      "chan": 3165,
      "];\\": 3166,
      "▁prote": 3167,
      "ules": 3168,
      "ially": 3169,
      "Col": 3170,
      "▁prot": 3171,
      "▁init": 3172,
      "raw": 3173,
      "vironment": 3174,
      "▁record": 3175,
      "▁offer": 3176,
      "ET": 3177,
      "▁company": 3178,
      "表示": 3179,
      "▁text": 3180,
      "▁arg": 3181,
      "大家": 3182,
      "ither": 3183,
      "▁event": 3184,
      "组织": 3185,
      "▁dise": 3186,
      "▁character": 3187,
      "这些": 3188,
      "了一": 3189,
      "rop": 3190,
      "idd": 3191,
      "孩子": 3192,
      "▁check": 3193,
      "合同": 3194,
      "▁conn": 3195,
      "ference": 3196,
      "ething": 3197,
      "yd": 3198,
      "大的": 3199,
      "▁dev": 3200,
      "类型": 3201,
      "政府": 3202,
      "▁ref": 3203,
      "ittle": 3204,
      "▁occ": 3205,
      "alcul": 3206,
      "ene": 3207,
      "那么": 3208,
      "▁▁▁▁▁▁▁▁▁▁▁▁▁▁": 3209,
      "isk": 3210,
      "▁foot": 3211,
      "个人": 3212,
      "ideo": 3213,
      "科学": 3214,
      "eb": 3215,
      "所有": 3216,
      "▁treatment": 3217,
      "答案": 3218,
      "第三": 3219,
      "▁going": 3220,
      "▁sure": 3221,
      ")$": 3222,
      "aterial": 3223,
      "▁Ap": 3224,
      "开发": 3225,
      "选项": 3226,
      "▁Ad": 3227,
      "hib": 3228,
      "atures": 3229,
      "loc": 3230,
      "ajor": 3231,
      "uf": 3232,
      "▁old": 3233,
      "nU": 3234,
      "▁access": 3235,
      "▁null": 3236,
      "▁cost": 3237,
      "▁裁": 3238,
      "ides": 3239,
      "一案": 3240,
      "裁定如下": 3241,
      "学校": 3242,
      "ai": 3243,
      "基本": 3244,
      "▁typ": 3245,
      "AD": 3246,
      "urther": 3247,
      "▁orig": 3248,
      "▁less": 3249,
      "▁low": 3250,
      "受理": 3251,
      "nJ": 3252,
      "对于": 3253,
      "anguage": 3254,
      "▁say": 3255,
      "▁analysis": 3256,
      "▁happ": 3257,
      "▁prom": 3258,
      "▁possible": 3259,
      "ibr": 3260,
      "▁__": 3261,
      "bject": 3262,
      "▁known": 3263,
      "作品": 3264,
      "▁too": 3265,
      "▁size": 3266,
      "acy": 3267,
      "▁example": 3268,
      "ves": 3269,
      "▁cho": 3270,
      "▁Or": 3271,
      "px": 3272,
      "plement": 3273,
      "平台": 3274,
      "▁sugg": 3275,
      "ours": 3276,
      "案件": 3277,
      "某某": 3278,
      "treturn": 3279,
      "应用": 3280,
      "[\\'": 3281,
      "▁large": 3282,
      "▁String": 3283,
      "▁players": 3284,
      "▁law": 3285,
      "▁tot": 3286,
      "inter": 3287,
      "▁Te": 3288,
      "▁mov": 3289,
      "ocial": 3290,
      "▁ans": 3291,
      "▁against": 3292,
      "ump": 3293,
      "serv": 3294,
      "▁American": 3295,
      "▁investig": 3296,
      "size": 3297,
      "▁common": 3298,
      "▁game": 3299,
      "ung": 3300,
      "cle": 3301,
      "日出生": 3302,
      "▁site": 3303,
      "▁full": 3304,
      "ume": 3305,
      "iod": 3306,
      "):": 3307,
      "▁She": 3308,
      "▁System": 3309,
      "▁es": 3310,
      "▁exam": 3311,
      "处理": 3312,
      "assert": 3313,
      "非常": 3314,
      "ised": 3315,
      "alu": 3316,
      "▁Br": 3317,
      "▁Mar": 3318,
      "▁fac": 3319,
      "单位": 3320,
      "imal": 3321,
      "▁children": 3322,
      "科技": 3323,
      "IL": 3324,
      "ering": 3325,
      "▁gl": 3326,
      "▁Pr": 3327,
      "▁success": 3328,
      "▁vol": 3329,
      "▁They": 3330,
      "▁single": 3331,
      "▁spe": 3332,
      "uction": 3333,
      "▁request": 3334,
      "ources": 3335,
      "具有": 3336,
      "ales": 3337,
      "ctor": 3338,
      "thing": 3339,
      "ental": 3340,
      "▁mean": 3341,
      "这种": 3342,
      "▁plan": 3343,
      "▁eng": 3344,
      "喜欢": 3345,
      "▁Eng": 3346,
      "▁propos": 3347,
      "▁These": 3348,
      "des": 3349,
      "uary": 3350,
      "▁another": 3351,
      "ators": 3352,
      "ponse": 3353,
      "上海": 3354,
      "ination": 3355,
      "ED": 3356,
      "inc": 3357,
      ");": 3358,
      "\",\"": 3359,
      "wit": 3360,
      "▁question": 3361,
      "ny": 3362,
      "▁rad": 3363,
      "▁links": 3364,
      "pi": 3365,
      "上的": 3366,
      "还有": 3367,
      "mit": 3368,
      "View": 3369,
      "▁put": 3370,
      "atory": 3371,
      "到了": 3372,
      "朋友": 3373,
      "▁able": 3374,
      "▁something": 3375,
      "▁suggest": 3376,
      "成为": 3377,
      "▁light": 3378,
      "▁phot": 3379,
      "▁aff": 3380,
      "▁market": 3381,
      "▁include": 3382,
      "nIt": 3383,
      "▁u": 3384,
      "▁experience": 3385,
      "▁keep": 3386,
      "▁pract": 3387,
      "ended": 3388,
      "ley": 3389,
      "Error": 3390,
      "mber": 3391,
      "▁services": 3392,
      "▁gover": 3393,
      "Ar": 3394,
      "><": 3395,
      "agn": 3396,
      "功能": 3397,
      "ables": 3398,
      "▁page": 3399,
      "州市": 3400,
      "\";\\": 3401,
      "▁give": 3402,
      "不会": 3403,
      "private": 3404,
      "即可": 3405,
      "rix": 3406,
      "Test": 3407,
      "基础": 3408,
      "AB": 3409,
      "▁always": 3410,
      "anks": 3411,
      "▁studies": 3412,
      "▁et": 3413,
      "觉得": 3414,
      "ories": 3415,
      "▁whe": 3416,
      "ries": 3417,
      "arr": 3418,
      "出现": 3419,
      "iter": 3420,
      "ivity": 3421,
      "▁allow": 3422,
      "ilar": 3423,
      "▁days": 3424,
      "MA": 3425,
      "▁Can": 3426,
      "▁might": 3427,
      "▁left": 3428,
      "▁working": 3429,
      "▁invol": 3430,
      "责任": 3431,
      "▁install": 3432,
      "ands": 3433,
      "omet": 3434,
      "ties": 3435,
      "nIf": 3436,
      "nusing": 3437,
      "终结": 3438,
      "ought": 3439,
      "▁el": 3440,
      "▁human": 3441,
      "used": 3442,
      "but": 3443,
      "▁Cent": 3444,
      "dict": 3445,
      "▁false": 3446,
      "▁prob": 3447,
      "ouble": 3448,
      "▁Count": 3449,
      "▁changes": 3450,
      "andom": 3451,
      "▁la": 3452,
      "▁id": 3453,
      "HE": 3454,
      "▁response": 3455,
      "ground": 3456,
      "To": 3457,
      "gen": 3458,
      "UR": 3459,
      "($": 3460,
      "'\\": 3461,
      "▁error": 3462,
      "成立": 3463,
      "ividual": 3464,
      "美国": 3465,
      "▁quality": 3466,
      "amespace": 3467,
      "},": 3468,
      "me": 3469,
      "▁role": 3470,
      "人员": 3471,
      "两个": 3472,
      "ript": 3473,
      "▁Bl": 3474,
      "▁special": 3475,
      "直接": 3476,
      "▁bro": 3477,
      "rec": 3478,
      "其中": 3479,
      "国际": 3480,
      "],\\": 3481,
      "▁final": 3482,
      "config": 3483,
      "ici": 3484,
      "ored": 3485,
      "纠纷一案": 3486,
      "mon": 3487,
      "▁*\\": 3488,
      "uration": 3489,
      "申请人": 3490,
      "▁May": 3491,
      "eff": 3492,
      "ling": 3493,
      "ertain": 3494,
      "▁ann": 3495,
      "条件": 3496,
      "▁mechan": 3497,
      "inf": 3498,
      "▁target": 3499,
      "▁describ": 3500,
      "iple": 3501,
      "amb": 3502,
      "一些": 3503,
      "with": 3504,
      "▁several": 3505,
      "送达": 3506,
      "▁paper": 3507,
      "db": 3508,
      "▁Gr": 3509,
      "▁big": 3510,
      "▁clin": 3511,
      "▁series": 3512,
      "你的": 3513,
      "umn": 3514,
      "▁little": 3515,
      "▁action": 3516,
      "▁obt": 3517,
      "日起": 3518,
      "▁However": 3519,
      "apt": 3520,
      "简介": 3521,
      "城市": 3522,
      "合作": 3523,
      "uture": 3524,
      "事实": 3525,
      "▁ter": 3526,
      "▁review": 3527,
      "HO": 3528,
      "rect": 3529,
      "▁models": 3530,
      "▁love": 3531,
      "▁United": 3532,
      "提高": 3533,
      "ids": 3534,
      "▁max": 3535,
      "aps": 3536,
      "▁inc": 3537,
      "▁hard": 3538,
      "';\\": 3539,
      "idence": 3540,
      "ording": 3541,
      "▁US": 3542,
      "▁potential": 3543,
      "args": 3544,
      "▁women": 3545,
      "{{": 3546,
      "▁rest": 3547,
      "field": 3548,
      "我的": 3549,
      "知识": 3550,
      "ending": 3551,
      "\":\"": 3552,
      "oph": 3553,
      "▁short": 3554,
      "fe": 3555,
      "ably": 3556,
      "▁estab": 3557,
      "MP": 3558,
      "范围": 3559,
      "my": 3560,
      "投资": 3561,
      "▁foc": 3562,
      "▁Sup": 3563,
      "▁profess": 3564,
      "ances": 3565,
      "▁**": 3566,
      "}\\\\)": 3567,
      "▁major": 3568,
      "▁either": 3569,
      "▁ca": 3570,
      "▁integr": 3571,
      "raft": 3572,
      "法定": 3573,
      "▁bo": 3574,
      "▁pay": 3575,
      "api": 3576,
      "▁required": 3577,
      "sy": 3578,
      "▁bir": 3579,
      "▁exc": 3580,
      "▁select": 3581,
      "nn": 3582,
      "▁season": 3583,
      "ift": 3584,
      "tt": 3585,
      "▁card": 3586,
      "sl": 3587,
      "▁along": 3588,
      "ention": 3589,
      "一般": 3590,
      "tif": 3591,
      "▁evalu": 3592,
      "▁represent": 3593,
      "▁Be": 3594,
      "rist": 3595,
      "▁got": 3596,
      "▁space": 3597,
      "///": 3598,
      "来的": 3599,
      "ux": 3600,
      "plate": 3601,
      "目前": 3602,
      "▁判": 3603,
      "最高": 3604,
      "适用": 3605,
      "nter": 3606,
      "▁default": 3607,
      "治疗": 3608,
      "▁}\\": 3609,
      "借款": 3610,
      "▁come": 3611,
      "▁age": 3612,
      "▁phys": 3613,
      "▁step": 3614,
      "ension": 3615,
      "▁total": 3616,
      "小说": 3617,
      "利用": 3618,
      "ival": 3619,
      "▁fri": 3620,
      "▁network": 3621,
      "▁ben": 3622,
      "▁事": 3623,
      "anag": 3624,
      "质量": 3625,
      "书记员": 3626,
      "为了": 3627,
      "▁things": 3628,
      "book": 3629,
      "})": 3630,
      "最后": 3631,
      "▁org": 3632,
      "委托": 3633,
      "▁webs": 3634,
      "标准": 3635,
      "▁individual": 3636,
      "ponent": 3637,
      "▁called": 3638,
      "▁until": 3639,
      "cript": 3640,
      "rict": 3641,
      "▁due": 3642,
      "▁static": 3643,
      "ready": 3644,
      "osis": 3645,
      "leg": 3646,
      "设备": 3647,
      "};\\": 3648,
      "▁der": 3649,
      "▁students": 3650,
      "▁times": 3651,
      "介绍": 3652,
      "count": 3653,
      "二十": 3654,
      "state": 3655,
      "OS": 3656,
      "机关": 3657,
      "OT": 3658,
      "▁turn": 3659,
      "▁content": 3660,
      "▁later": 3661,
      "ply": 3662,
      "作用": 3663,
      "资源": 3664,
      "illion": 3665,
      "实现": 3666,
      "});\\": 3667,
      "off": 3668,
      "}^{": 3669,
      "▁leg": 3670,
      "▁feel": 3671,
      "nexport": 3672,
      "\\')": 3673,
      "\\':": 3674,
      "ieve": 3675,
      "cular": 3676,
      "律师": 3677,
      "定的": 3678,
      "▁near": 3679,
      "ogn": 3680,
      "filename": 3681,
      "▁sy": 3682,
      "▁pub": 3683,
      "▁Car": 3684,
      "包括": 3685,
      "▁else": 3686,
      "▁complet": 3687,
      "存在": 3688,
      "param": 3689,
      "abor": 3690,
      "code": 3691,
      "gin": 3692,
      "▁comput": 3693,
      "Problem": 3694,
      "json": 3695,
      "▁rate": 3696,
      "▁disease": 3697,
      "▁https": 3698,
      "经营": 3699,
      "▁side": 3700,
      "行政": 3701,
      "ING": 3702,
      "而且": 3703,
      "File": 3704,
      "roid": 3705,
      "sin": 3706,
      "NAME": 3707,
      "▁energ": 3708,
      "Model": 3709,
      "estions": 3710,
      "▁Cont": 3711,
      "起诉": 3712,
      "连载": 3713,
      "▁period": 3714,
      "uit": 3715,
      "▁ask": 3716,
      "▁term": 3717,
      "▁lot": 3718,
      "verage": 3719,
      "……": 3720,
      "▁No": 3721,
      "mb": 3722,
      "Title": 3723,
      "▁micro": 3724,
      "$\\": 3725,
      "lobal": 3726,
      "ession": 3727,
      "ribution": 3728,
      "▁tool": 3729,
      "input": 3730,
      "cd": 3731,
      "▁indic": 3732,
      "解决": 3733,
      "▁online": 3734,
      "▁meet": 3735,
      "▁enc": 3736,
      "struction": 3737,
      "五十": 3738,
      "▁general": 3739,
      "mm": 3740,
      "符合": 3741,
      "oney": 3742,
      "一次": 3743,
      "function": 3744,
      "wards": 3745,
      "效力": 3746,
      "Sc": 3747,
      "color": 3748,
      "void": 3749,
      "▁pain": 3750,
      "▁standard": 3751,
      "应该": 3752,
      "ayer": 3753,
      "ogle": 3754,
      "教学": 3755,
      "▁values": 3756,
      "▁complex": 3757,
      "arning": 3758,
      "title": 3759,
      "之规定": 3760,
      "hel": 3761,
      "content": 3762,
      "urity": 3763,
      "bum": 3764,
      "max": 3765,
      "▁image": 3766,
      "本院认为": 3767,
      "no": 3768,
      "控制": 3769,
      "ae": 3770,
      "▁exist": 3771,
      "tings": 3772,
      "ography": 3773,
      "pec": 3774,
      "▁account": 3775,
      "uk": 3776,
      "nconst": 3777,
      "▁community": 3778,
      "md": 3779,
      "▁discuss": 3780,
      "本裁定": 3781,
      "面积": 3782,
      "ones": 3783,
      "▁compet": 3784,
      "行业": 3785,
      "nder": 3786,
      "▁environment": 3787,
      "map": 3788,
      "代理人": 3789,
      "第二百": 3790,
      "▁respect": 3791,
      "民初": 3792,
      "▁prim": 3793,
      "▁football": 3794,
      "▁body": 3795,
      "▁associated": 3796,
      "▁men": 3797,
      "ising": 3798,
      "ober": 3799,
      "之后": 3800,
      "US": 3801,
      "材料": 3802,
      "▁AN": 3803,
      "▁Our": 3804,
      "▁tre": 3805,
      "▁above": 3806,
      "函数": 3807,
      "])\\": 3808,
      "▁effects": 3809,
      "▁sym": 3810,
      "side": 3811,
      "能够": 3812,
      "▁activity": 3813,
      "ney": 3814,
      "▁ep": 3815,
      "▁risk": 3816,
      "aring": 3817,
      "▁mar": 3818,
      "▁solution": 3819,
      ")/": 3820,
      "▁material": 3821,
      "▁sens": 3822,
      "▁IS": 3823,
      "usion": 3824,
      "▁particular": 3825,
      "error": 3826,
      "▁air": 3827,
      "品牌": 3828,
      "▁early": 3829,
      "nment": 3830,
      "▁performance": 3831,
      "lib": 3832,
      "真的": 3833,
      "mat": 3834,
      "▁link": 3835,
      "▁among": 3836,
      "Par": 3837,
      "全国": 3838,
      "oms": 3839,
      "from": 3840,
      "ibility": 3841,
      "出版社": 3842,
      "▁issue": 3843,
      "▁crit": 3844,
      "box": 3845,
      "ze": 3846,
      "的规定": 3847,
      "▁word": 3848,
      "完成": 3849,
      "olic": 3850,
      "▁dat": 3851,
      "********": 3852,
      "inary": 3853,
      "▁energy": 3854,
      "正确": 3855,
      "ero": 3856,
      "▁base": 3857,
      "▁port": 3858,
      "▁move": 3859,
      "ilt": 3860,
      "une": 3861,
      "▁previous": 3862,
      "▁looking": 3863,
      "asing": 3864,
      "ender": 3865,
      "odes": 3866,
      "▁With": 3867,
      "▁Jan": 3868,
      "▁educ": 3869,
      "▁similar": 3870,
      "▁below": 3871,
      "Set": 3872,
      "Value": 3873,
      "(\\\\": 3874,
      "▁relations": 3875,
      "plied": 3876,
      "▁respons": 3877,
      "一起": 3878,
      "▁mot": 3879,
      "区人民法院": 3880,
      "inst": 3881,
      "▁why": 3882,
      "其实": 3883,
      "▁course": 3884,
      "icient": 3885,
      "roller": 3886,
      "▁fix": 3887,
      "ores": 3888,
      "▁County": 3889,
      "cos": 3890,
      "mission": 3891,
      "▁creat": 3892,
      "价格": 3893,
      "ipp": 3894,
      "▁approach": 3895,
      "▁products": 3896,
      "▁making": 3897,
      "Service": 3898,
      "top": 3899,
      "代表人": 3900,
      "四十": 3901,
      "Im": 3902,
      "da": 3903,
      "nExternal": 3904,
      "不要": 3905,
      "委员": 3906,
      "fl": 3907,
      "ights": 3908,
      "▁systems": 3909,
      "支付": 3910,
      "▁today": 3911,
      "▁flo": 3912,
      "▁software": 3913,
      "▁means": 3914,
      "rodu": 3915,
      "▁indust": 3916,
      "建议": 3917,
      "main": 3918,
      "▁config": 3919,
      "▁dom": 3920,
      "▁observ": 3921,
      "CO": 3922,
      "▁needs": 3923,
      "▁source": 3924,
      "Field": 3925,
      "▁improve": 3926,
      "tra": 3927,
      "有效": 3928,
      "Requ": 3929,
      "地区": 3930,
      "imum": 3931,
      "▁having": 3932,
      "▁lo": 3933,
      "▁—": 3934,
      "gor": 3935,
      "过程中": 3936,
      "建筑": 3937,
      "pass": 3938,
      "oken": 3939,
      "Sh": 3940,
      "pha": 3941,
      "label": 3942,
      "▁already": 3943,
      "▁ther": 3944,
      "ica": 3945,
      "▁never": 3946,
      "▁address": 3947,
      "trans": 3948,
      "证据": 3949,
      "IP": 3950,
      "pre": 3951,
      "▁done": 3952,
      "▁levels": 3953,
      "oper": 3954,
      "nb": 3955,
      "istic": 3956,
      "utions": 3957,
      "indows": 3958,
      "▁job": 3959,
      "▁members": 3960,
      "▁offic": 3961,
      "Int": 3962,
      "▁nec": 3963,
      "职业": 3964,
      "▁whether": 3965,
      "ague": 3966,
      "result": 3967,
      "ribute": 3968,
      "▁Joh": 3969,
      "hold": 3970,
      "dir": 3971,
      "ino": 3972,
      "nYou": 3973,
      "▁Ass": 3974,
      "一下": 3975,
      "采用": 3976,
      "一直": 3977,
      "▁answer": 3978,
      "▁circ": 3979,
      "▁behav": 3980,
      "ributed": 3981,
      "▁toget": 3982,
      "php": 3983,
      "iation": 3984,
      "▁together": 3985,
      "▁document": 3986,
      "▁death": 3987,
      "Exception": 3988,
      "一样": 3989,
      "ports": 3990,
      "表现": 3991,
      "▁expression": 3992,
      "▁employ": 3993,
      "操作": 3994,
      "▁lik": 3995,
      "▁groups": 3996,
      "Text": 3997,
      "行为": 3998,
      "▁least": 3999,
      "▁press": 4000,
      "▁video": 4001,
      "▁Par": 4002,
      "▁win": 4003,
      "alf": 4004,
      "DE": 4005,
      "ills": 4006,
      "▁–\\": 4007,
      "▁application": 4008,
      "artment": 4009,
      "结构": 4010,
      "进行了": 4011,
      "▁National": 4012,
      "based": 4013,
      "thers": 4014,
      "▁copy": 4015,
      "▁Im": 4016,
      "▁various": 4017,
      "earch": 4018,
      "▁experim": 4019,
      "▁features": 4020,
      "atter": 4021,
      "▁often": 4022,
      "各种": 4023,
      "▁website": 4024,
      "▁States": 4025,
      "ainer": 4026,
      "▁fail": 4027,
      "place": 4028,
      "User": 4029,
      "▁paramet": 4030,
      "▁higher": 4031,
      "▁sequ": 4032,
      "arrow": 4033,
      "▁social": 4034,
      "之间": 4035,
      "▁vir": 4036,
      "Object": 4037,
      "▁//": 4038,
      "oor": 4039,
      "了解": 4040,
      "获得": 4041,
      "lor": 4042,
      "/*": 4043,
      "决定": 4044,
      "ounc": 4045,
      "Key": 4046,
      "▁trad": 4047,
      "▁cur": 4048,
      "▁related": 4049,
      "oo": 4050,
      "罪犯": 4051,
      "ummary": 4052,
      "now": 4053,
      "item": 4054,
      "▁cases": 4055,
      "▁implement": 4056,
      "bb": 4057,
      "osp": 4058,
      "以下": 4059,
      "▁Aust": 4060,
      "健康": 4061,
      "oud": 4062,
      "▁Fe": 4063,
      "▁dig": 4064,
      "▁simple": 4065,
      "utes": 4066,
      "自然": 4067,
      "▁Med": 4068,
      "ging": 4069,
      "第一款": 4070,
      "交通": 4071,
      "ogen": 4072,
      "▁across": 4073,
      "以上": 4074,
      "法定代表人": 4075,
      "积极": 4076,
      "法律效力": 4077,
      "nWhat": 4078,
      "▁won": 4079,
      "egin": 4080,
      "run": 4081,
      "▁员": 4082,
      "Time": 4083,
      "注意": 4084,
      "ditions": 4085,
      "由于": 4086,
      "▁sum": 4087,
      "▁Des": 4088,
      "ags": 4089,
      "▁None": 4090,
      "gorith": 4091,
      "▁flow": 4092,
      "erc": 4093,
      "amed": 4094,
      "amm": 4095,
      "omic": 4096,
      "lim": 4097,
      "▁Reg": 4098,
      "nV": 4099,
      "request": 4100,
      "▁film": 4101,
      "bar": 4102,
      "▁Int": 4103,
      "▁clear": 4104,
      "▁input": 4105,
      "Pl": 4106,
      "blems": 4107,
      "ches": 4108,
      "▁past": 4109,
      "▁()": 4110,
      "▁cult": 4111,
      "▁fund": 4112,
      "学院": 4113,
      "▁house": 4114,
      "year": 4115,
      "stit": 4116,
      "pen": 4117,
      "SS": 4118,
      "▁Min": 4119,
      "作出": 4120,
      "▁compon": 4121,
      "point": 4122,
      "▁further": 4123,
      "▁host": 4124,
      "ison": 4125,
      "ude": 4126,
      "~~": 4127,
      "▁please": 4128,
      "发生法律效力": 4129,
      "part": 4130,
      "plit": 4131,
      "style": 4132,
      "▁normal": 4133,
      "▁increase": 4134,
      "分钟": 4135,
      "▁fun": 4136,
      "aim": 4137,
      "运动": 4138,
      "▁When": 4139,
      "lin": 4140,
      "万元": 4141,
      "ips": 4142,
      "avel": 4143,
      "xy": 4144,
      "comp": 4145,
      "body": 4146,
      "plication": 4147,
      "▁points": 4148,
      "dom": 4149,
      "个月": 4150,
      "▁contact": 4151,
      "▁abs": 4152,
      "True": 4153,
      "▁Co": 4154,
      "▁che": 4155,
      "▁Jul": 4156,
      "▁works": 4157,
      "icult": 4158,
      "▁dri": 4159,
      "((": 4160,
      "dition": 4161,
      "▁My": 4162,
      "产业": 4163,
      "▁factors": 4164,
      "▁assess": 4165,
      "ride": 4166,
      "irm": 4167,
      "▁South": 4168,
      "amework": 4169,
      "#\\": 4170,
      "价值": 4171,
      "ving": 4172,
      "▁months": 4173,
      "▁subject": 4174,
      "义务": 4175,
      "indow": 4176,
      "▁multiple": 4177,
      "▁World": 4178,
      "▁clinical": 4179,
      "cin": 4180,
      "▁IN": 4181,
      "▁deg": 4182,
      "lege": 4183,
      "这是": 4184,
      "▁cancer": 4185,
      "▁food": 4186,
      "希望": 4187,
      "不过": 4188,
      "▁terms": 4189,
      "特别": 4190,
      "atform": 4191,
      "down": 4192,
      "▁style": 4193,
      "用户": 4194,
      "▁bit": 4195,
      "患者": 4196,
      "条第一款": 4197,
      "▁express": 4198,
      "▁search": 4199,
      "▁State": 4200,
      "▁strong": 4201,
      "aging": 4202,
      "组成": 4203,
      "▁measure": 4204,
      "予以": 4205,
      "IV": 4206,
      "########": 4207,
      "));\\": 4208,
      "▁fore": 4209,
      "机构": 4210,
      "std": 4211,
      "group": 4212,
      "起来": 4213,
      "astic": 4214,
      "src": 4215,
      "▁larg": 4216,
      "imate": 4217,
      "actions": 4218,
      "verse": 4219,
      "▁Am": 4220,
      "We": 4221,
      "fect": 4222,
      "onstr": 4223,
      "df": 4224,
      "▁diff": 4225,
      "▁conditions": 4226,
      "这一": 4227,
      "实际": 4228,
      "ilit": 4229,
      "效果": 4230,
      "ector": 4231,
      "▁Gener": 4232,
      "irl": 4233,
      "▁School": 4234,
      "nint": 4235,
      "gress": 4236,
      "perty": 4237,
      "ford": 4238,
      "▁Euro": 4239,
      "▁mass": 4240,
      "ython": 4241,
      "历史": 4242,
      "手机": 4243,
      "▁future": 4244,
      "\\']": 4245,
      "▁methods": 4246,
      "综合": 4247,
      "eful": 4248,
      "Log": 4249,
      "是否": 4250,
      "ama": 4251,
      "▁particip": 4252,
      "State": 4253,
      "CH": 4254,
      "▁Gu": 4255,
      "为什么": 4256,
      "PI": 4257,
      "▁far": 4258,
      "保护": 4259,
      "joy": 4260,
      "▁<<": 4261,
      "apy": 4262,
      "ada": 4263,
      "▁music": 4264,
      "住所": 4265,
      "酒店": 4266,
      "级人民法院": 4267,
      "This": 4268,
      "Get": 4269,
      "ana": 4270,
      "empt": 4271,
      "▁protein": 4272,
      "iate": 4273,
      "base": 4274,
      "多少": 4275,
      "▁&&": 4276,
      "▁doesn": 4277,
      "▁stre": 4278,
      "▁kind": 4279,
      "▁load": 4280,
      "▁increased": 4281,
      "nFor": 4282,
      "老师": 4283,
      "abase": 4284,
      "UL": 4285,
      "▁Qu": 4286,
      "ynam": 4287,
      "▁compared": 4288,
      "状态": 4289,
      "▁message": 4290,
      "▁miss": 4291,
      "▁continu": 4292,
      "只有": 4293,
      "▁print": 4294,
      "得到": 4295,
      "length": 4296,
      "though": 4297,
      "集团": 4298,
      "cho": 4299,
      "oute": 4300,
      "nK": 4301,
      "▁easy": 4302,
      "▁table": 4303,
      "▁Oct": 4304,
      "isc": 4305,
      "▁album": 4306,
      "board": 4307,
      "因此": 4308,
      "▁aim": 4309,
      "▁position": 4310,
      "▁strateg": 4311,
      "object": 4312,
      "▁makes": 4313,
      "image": 4314,
      "leased": 4315,
      "atural": 4316,
      "create": 4317,
      "▁visit": 4318,
      "▁benef": 4319,
      "rior": 4320,
      "atal": 4321,
      "link": 4322,
      "▁Apr": 4323,
      "eta": 4324,
      "ication": 4325,
      "sec": 4326,
      "nusername": 4327,
      "销售": 4328,
      "▁training": 4329,
      "看到": 4330,
      "▁lower": 4331,
      "ependent": 4332,
      "▁coll": 4333,
      "CL": 4334,
      "▁cy": 4335,
      "感觉": 4336,
      "▁os": 4337,
      "▁learn": 4338,
      "▁ach": 4339,
      "▁polit": 4340,
      "eger": 4341,
      "▁city": 4342,
      "era": 4343,
      "lood": 4344,
      "anced": 4345,
      "不断": 4346,
      "build": 4347,
      "ilities": 4348,
      ">>": 4349,
      "▁limit": 4350,
      "▁color": 4351,
      "年的": 4352,
      "日内": 4353,
      "依据": 4354,
      "aken": 4355,
      "▁become": 4356,
      "ibrary": 4357,
      "bit": 4358,
      "利息": 4359,
      "etic": 4360,
      "股份": 4361,
      "原因": 4362,
      "十二": 4363,
      "▁production": 4364,
      "ersion": 4365,
      "应当": 4366,
      "劳动": 4367,
      "oman": 4368,
      "▁via": 4369,
      "▁track": 4370,
      "部门": 4371,
      "ategory": 4372,
      "ounds": 4373,
      "面的": 4374,
      "$$\\": 4375,
      "enn": 4376,
      "annel": 4377,
      "core": 4378,
      "plac": 4379,
      "负责": 4380,
      "){\\": 4381,
      "bre": 4382,
      "▁relationship": 4383,
      "nce": 4384,
      "创新": 4385,
      "▁squ": 4386,
      "▁Intern": 4387,
      "▁structure": 4388,
      "orage": 4389,
      "AM": 4390,
      "▁Me": 4391,
      "▁frequ": 4392,
      "ires": 4393,
      "oll": 4394,
      "▁Go": 4395,
      "▁Ge": 4396,
      "南省": 4397,
      "计划": 4398,
      "Config": 4399,
      "▁added": 4400,
      "▁II": 4401,
      "▁correct": 4402,
      "虽然": 4403,
      "▁作者": 4404,
      "▁cover": 4405,
      "▁Add": 4406,
      "▁Rec": 4407,
      "解释": 4408,
      "ledge": 4409,
      "stars": 4410,
      "eral": 4411,
      "住所地": 4412,
      "▁events": 4413,
      "nswer": 4414,
      "width": 4415,
      "▁immun": 4416,
      "ops": 4417,
      "default": 4418,
      "$,": 4419,
      "▁demonstr": 4420,
      "▁hy": 4421,
      "▁problems": 4422,
      "omy": 4423,
      "▁growth": 4424,
      "有关": 4425,
      "▁连载": 4426,
      "▁red": 4427,
      "地方": 4428,
      "▁Rep": 4429,
      "▁received": 4430,
      "ding": 4431,
      "ament": 4432,
      "▁positive": 4433,
      "的话": 4434,
      "begin": 4435,
      "▁York": 4436,
      "tpublic": 4437,
      "Re": 4438,
      "安装": 4439,
      "▁java": 4440,
      "▁That": 4441,
      "成功": 4442,
      "iles": 4443,
      "spec": 4444,
      "▁feature": 4445,
      "▁language": 4446,
      "IR": 4447,
      "回答": 4448,
      "受理费": 4449,
      "▁Dr": 4450,
      "▁country": 4451,
      "▁length": 4452,
      "It": 4453,
      "iddle": 4454,
      "▁thought": 4455,
      "▁factor": 4456,
      "▁hom": 4457,
      "package": 4458,
      "ENT": 4459,
      "医院": 4460,
      "▁admin": 4461,
      "▁away": 4462,
      "水平": 4463,
      "也不": 4464,
      "▁hyp": 4465,
      "本次": 4466,
      "\\\\(\\\\": 4467,
      "post": 4468,
      "Un": 4469,
      "▁Part": 4470,
      "▁population": 4471,
      "nTo": 4472,
      "▁refer": 4473,
      "▁neg": 4474,
      "▁block": 4475,
      "▁output": 4476,
      "istics": 4477,
      "▁proposed": 4478,
      "▁management": 4479,
      "most": 4480,
      "que": 4481,
      "消费": 4482,
      "▁questions": 4483,
      "医学": 4484,
      "▁drug": 4485,
      "Request": 4486,
      "▁third": 4487,
      "▁five": 4488,
      "艺术": 4489,
      "必须": 4490,
      "array": 4491,
      "uments": 4492,
      "eter": 4493,
      "▁web": 4494,
      "国内": 4495,
      "分别": 4496,
      "▁option": 4497,
      "▁Do": 4498,
      "sk": 4499,
      "sole": 4500,
      "之一": 4501,
      "▁One": 4502,
      "▁amount": 4503,
      "来说": 4504,
      "▁certain": 4505,
      "ites": 4506,
      "只是": 4507,
      "方程": 4508,
      "十一": 4509,
      "open": 4510,
      "▁provides": 4511,
      "▁created": 4512,
      "▁Aug": 4513,
      "▁North": 4514,
      "▁hold": 4515,
      "▁Christ": 4516,
      "▁song": 4517,
      "请求": 4518,
      "▁List": 4519,
      "▁located": 4520,
      "repon": 4521,
      "▁determine": 4522,
      "▁mor": 4523,
      "▁included": 4524,
      "AG": 4525,
      "▁developed": 4526,
      "电子": 4527,
      "▁author": 4528,
      "▁land": 4529,
      "format": 4530,
      "stract": 4531,
      "▁)": 4532,
      "▁ang": 4533,
      "portun": 4534,
      "reponame": 4535,
      "ners": 4536,
      "▁history": 4537,
      "elling": 4538,
      "▁young": 4539,
      "▁rat": 4540,
      "▁chall": 4541,
      "Path": 4542,
      "uses": 4543,
      "▁Cal": 4544,
      "▁complete": 4545,
      "他的": 4546,
      "▁mole": 4547,
      "▁month": 4548,
      "press": 4549,
      "itory": 4550,
      "▁predict": 4551,
      "umb": 4552,
      "izing": 4553,
      "mail": 4554,
      "▁calcul": 4555,
      "npublic": 4556,
      "doc": 4557,
      "ried": 4558,
      "撤诉": 4559,
      "生效": 4560,
      "unch": 4561,
      "▁thing": 4562,
      "精神": 4563,
      "aling": 4564,
      "node": 4565,
      "▁ens": 4566,
      "▁money": 4567,
      "UN": 4568,
      "itions": 4569,
      "▁index": 4570,
      "Or": 4571,
      "▁options": 4572,
      "PS": 4573,
      "结合": 4574,
      "▁sat": 4575,
      "一步": 4576,
      "LO": 4577,
      "▁valid": 4578,
      "中级人民法院": 4579,
      "▁provided": 4580,
      "sequ": 4581,
      "▁issues": 4582,
      "汽车": 4583,
      "section": 4584,
      "无法": 4585,
      "▁once": 4586,
      "山东": 4587,
      "ula": 4588,
      "▁Ab": 4589,
      "▁OF": 4590,
      "icles": 4591,
      "▁Pol": 4592,
      "MS": 4593,
      "▁[\\": 4594,
      "istance": 4595,
      "By": 4596,
      "▁$$\\\\": 4597,
      "▁camp": 4598,
      "▁City": 4599,
      "▁property": 4600,
      "ike": 4601,
      "▁impact": 4602,
      "▁started": 4603,
      "Add": 4604,
      "alt": 4605,
      "▁building": 4606,
      "itional": 4607,
      "增加": 4608,
      "hest": 4609,
      "[]": 4610,
      "▁original": 4611,
      "▁Not": 4612,
      "urch": 4613,
      "info": 4614,
      "这里": 4615,
      "angle": 4616,
      "irection": 4617,
      "ui": 4618,
      "双方": 4619,
      "amples": 4620,
      "itted": 4621,
      "▁Europe": 4622,
      "ered": 4623,
      "ults": 4624,
      "script": 4625,
      "▁parent": 4626,
      "▁ver": 4627,
      "模式": 4628,
      "ram": 4629,
      "▁percent": 4630,
      "▁context": 4631,
      "判决书": 4632,
      "▁mag": 4633,
      "____": 4634,
      "message": 4635,
      "iction": 4636,
      "▁teach": 4637,
      "▁Ser": 4638,
      "▁q": 4639,
      "anies": 4640,
      "▁super": 4641,
      "▁files": 4642,
      "ango": 4643,
      "active": 4644,
      "目标": 4645,
      "政策": 4646,
      "display": 4647,
      "▁others": 4648,
      "▁sex": 4649,
      "▁technology": 4650,
      "oding": 4651,
      "▁Art": 4652,
      "文件": 4653,
      "icon": 4654,
      "`\\": 4655,
      "▁release": 4656,
      "▁mix": 4657,
      "▁match": 4658,
      "$\\\\": 4659,
      "▁areas": 4660,
      "可供": 4661,
      "atest": 4662,
      "▁random": 4663,
      "▁hot": 4664,
      "olve": 4665,
      "系列": 4666,
      "[\"": 4667,
      "▁CO": 4668,
      "客户": 4669,
      "while": 4670,
      "软件": 4671,
      "▁div": 4672,
      "我国": 4673,
      "▁opportun": 4674,
      "这么": 4675,
      "继续": 4676,
      "lements": 4677,
      "▁functions": 4678,
      "|\\": 4679,
      "▁hours": 4680,
      "▁yet": 4681,
      "uation": 4682,
      "ulated": 4683,
      "▁grad": 4684,
      "Form": 4685,
      "▁currently": 4686,
      "anch": 4687,
      "osph": 4688,
      "sum": 4689,
      "ensive": 4690,
      "▁species": 4691,
      "▁engine": 4692,
      "img": 4693,
      "▁government": 4694,
      "▁article": 4695,
      "iff": 4696,
      "▁live": 4697,
      "▁types": 4698,
      "工业": 4699,
      "avor": 4700,
      "位置": 4701,
      "▁reason": 4702,
      "▁member": 4703,
      "▁pick": 4704,
      "Map": 4705,
      "进入": 4706,
      "▁Stud": 4707,
      "▁enough": 4708,
      "ayout": 4709,
      "▁regard": 4710,
      "mark": 4711,
      "▁date": 4712,
      "Ser": 4713,
      "▁clos": 4714,
      "▁exec": 4715,
      "}}{": 4716,
      "▁Austral": 4717,
      "▁getting": 4718,
      "▁though": 4719,
      "▁After": 4720,
      "conn": 4721,
      "')\\": 4722,
      "农村": 4723,
      "▁price": 4724,
      "inding": 4725,
      "expect": 4726,
      "room": 4727,
      "urg": 4728,
      "▁comes": 4729,
      "pat": 4730,
      "})\\": 4731,
      "urb": 4732,
      "▁numbers": 4733,
      "rm": 4734,
      "出来": 4735,
      "案件受理费": 4736,
      "opyright": 4737,
      "▁room": 4738,
      "ML": 4739,
      "▁enjoy": 4740,
      "obile": 4741,
      "简单": 4742,
      "▁designed": 4743,
      "▁inhib": 4744,
      "证明": 4745,
      "▁six": 4746,
      "股份有限公司": 4747,
      "▁quant": 4748,
      "自动": 4749,
      "');\\": 4750,
      "nLet": 4751,
      "电影": 4752,
      "~\\": 4753,
      "准许": 4754,
      "▁seen": 4755,
      "▁personal": 4756,
      "▁doing": 4757,
      "▁Sec": 4758,
      "▁sw": 4759,
      "▁minutes": 4760,
      "▁autom": 4761,
      "where": 4762,
      "▁pattern": 4763,
      "ming": 4764,
      "umber": 4765,
      "▁quick": 4766,
      "▁necess": 4767,
      "ese": 4768,
      "▁OR": 4769,
      "${": 4770,
      "按照": 4771,
      "Inf": 4772,
      "▁properties": 4773,
      "ony": 4774,
      "reate": 4775,
      "产生": 4776,
      "更多": 4777,
      "▁graph": 4778,
      "dev": 4779,
      "▁actually": 4780,
      "▁close": 4781,
      "\\';\\": 4782,
      "完全": 4783,
      "通知": 4784,
      "▁influ": 4785,
      "▁unique": 4786,
      "浙江": 4787,
      "{\"": 4788,
      "▁million": 4789,
      "▁bar": 4790,
      "▁initial": 4791,
      "soft": 4792,
      "▁surface": 4793,
      "▁mom": 4794,
      "▁perfect": 4795,
      "istry": 4796,
      "ges": 4797,
      "sing": 4798,
      "▁introdu": 4799,
      "▁diagn": 4800,
      "▁John": 4801,
      "▁clean": 4802,
      "CC": 4803,
      "▁cut": 4804,
      "▁std": 4805,
      "gn": 4806,
      "▁heart": 4807,
      "▁users": 4808,
      "新的": 4809,
      "之前": 4810,
      "▁decre": 4811,
      "▁details": 4812,
      "nAs": 4813,
      "▁Per": 4814,
      "host": 4815,
      "▁buy": 4816,
      "▁High": 4817,
      "PO": 4818,
      "▁separ": 4819,
      "nm": 4820,
      "领导": 4821,
      "位于": 4822,
      "Al": 4823,
      "上述": 4824,
      "inally": 4825,
      "oma": 4826,
      "东西": 4827,
      "web": 4828,
      "容易": 4829,
      "ius": 4830,
      "▁econ": 4831,
      "经过": 4832,
      "▁shows": 4833,
      "共同": 4834,
      "平方": 4835,
      "resh": 4836,
      "▁comb": 4837,
      "业务": 4838,
      "日本": 4839,
      "▁arch": 4840,
      "▁novel": 4841,
      "PE": 4842,
      "nSt": 4843,
      "ises": 4844,
      "▁beaut": 4845,
      "▁tum": 4846,
      "▁intern": 4847,
      "▁begin": 4848,
      "理论": 4849,
      "开展": 4850,
      "信用": 4851,
      "Item": 4852,
      "▁title": 4853,
      "委托代理人": 4854,
      "▁break": 4855,
      "table": 4856,
      "ucle": 4857,
      "▁blood": 4858,
      "▁concent": 4859,
      "传统": 4860,
      "hand": 4861,
      "之日起": 4862,
      "最高人民法院": 4863,
      "网站": 4864,
      "env": 4865,
      "处罚": 4866,
      "Mod": 4867,
      "▁games": 4868,
      "cast": 4869,
      "▁took": 4870,
      "onal": 4871,
      "▁conduct": 4872,
      "▁loss": 4873,
      "的大": 4874,
      "valid": 4875,
      "家庭": 4876,
      "▁reported": 4877,
      "月二十": 4878,
      "具体": 4879,
      "ugin": 4880,
      "istration": 4881,
      "▁polic": 4882,
      "委员会": 4883,
      "ydro": 4884,
      "ached": 4885,
      "nWh": 4886,
      "领域": 4887,
      "▁recomm": 4888,
      "▁distributed": 4889,
      "append": 4890,
      "light": 4891,
      "意义": 4892,
      "Context": 4893,
      "BC": 4894,
      "▁successful": 4895,
      "encies": 4896,
      "县人民法院": 4897,
      "isms": 4898,
      "▁extends": 4899,
      "ube": 4900,
      "idge": 4901,
      "检察": 4902,
      "client": 4903,
      "有一": 4904,
      "撤回": 4905,
      "▁prevent": 4906,
      "▁needed": 4907,
      "▁Cor": 4908,
      "▁significantly": 4909,
      "▁showed": 4910,
      "政治": 4911,
      "inate": 4912,
      "▁temper": 4913,
      "▁released": 4914,
      "▁En": 4915,
      "形成": 4916,
      "▁region": 4917,
      "ged": 4918,
      "目的": 4919,
      "ief": 4920,
      "的事": 4921,
      "module": 4922,
      "nown": 4923,
      "▁media": 4924,
      "▁screen": 4925,
      "oring": 4926,
      "jango": 4927,
      "ync": 4928,
      "▁equation": 4929,
      "aid": 4930,
      "▁email": 4931,
      "▁according": 4932,
      "主任": 4933,
      "▁says": 4934,
      "prot": 4935,
      "▁industry": 4936,
      "aur": 4937,
      "▁collection": 4938,
      "rest": 4939,
      "ros": 4940,
      "adem": 4941,
      "现代": 4942,
      "bt": 4943,
      "▁however": 4944,
      "▁knowledge": 4945,
      "▁ess": 4946,
      "nThere": 4947,
      "aches": 4948,
      "▁former": 4949,
      "图书": 4950,
      "lected": 4951,
      "ring": 4952,
      "gorithm": 4953,
      "▁share": 4954,
      "illed": 4955,
      "▁professional": 4956,
      "▁played": 4957,
      "▁chem": 4958,
      "dat": 4959,
      "▁learning": 4960,
      "actory": 4961,
      "承担": 4962,
      "需求": 4963,
      "▁ever": 4964,
      "▁recent": 4965,
      "电视": 4966,
      "ampions": 4967,
      "status": 4968,
      "当事": 4969,
      "负担": 4970,
      "%)": 4971,
      "显示": 4972,
      "▁||": 4973,
      "▁Dist": 4974,
      "▁night": 4975,
      "▁stop": 4976,
      "igned": 4977,
      "rew": 4978,
      "▁Get": 4979,
      "anager": 4980,
      "努力": 4981,
      "▁THE": 4982,
      "属于": 4983,
      "▁talk": 4984,
      "underline": 4985,
      "可供执行": 4986,
      "▁March": 4987,
      "会议": 4988,
      "▁career": 4989,
      "Ph": 4990,
      "nHe": 4991,
      "教师": 4992,
      "今天": 4993,
      "不到": 4994,
      "rows": 4995,
      "接受": 4996,
      "Event": 4997,
      "try": 4998,
      "▁patient": 4999,
      "▁agre": 5000,
      "nuse": 5001,
      "▁mut": 5002,
      "数的": 5003,
      "change": 5004,
      "任何": 5005,
      "小时": 5006,
      "iol": 5007,
      "▁built": 5008,
      "pring": 5009,
      "▁idea": 5010,
      "公里": 5011,
      "▁writing": 5012,
      "人民币": 5013,
      "flow": 5014,
      "▁published": 5015,
      "帮助": 5016,
      ",”": 5017,
      "['": 5018,
      "提升": 5019,
      "收入": 5020,
      "导致": 5021,
      "最大": 5022,
      "▁shown": 5023,
      "▁story": 5024,
      "登记": 5025,
      "iated": 5026,
      "ects": 5027,
      "TE": 5028,
      "确定": 5029,
      "position": 5030,
      "ha": 5031,
      "▁goal": 5032,
      "ched": 5033,
      "olean": 5034,
      "ronic": 5035,
      "有的": 5036,
      "CE": 5037,
      "▁array": 5038,
      "毕业": 5039,
      "▁cross": 5040,
      "imens": 5041,
      "lying": 5042,
      "▁pack": 5043,
      "故事": 5044,
      "▁Brit": 5045,
      "apan": 5046,
      "▁half": 5047,
      "▁update": 5048,
      "])": 5049,
      "▁ir": 5050,
      "▁expected": 5051,
      "eed": 5052,
      "普通": 5053,
      "HT": 5054,
      "hesis": 5055,
      "▁pict": 5056,
      "born": 5057,
      "query": 5058,
      "▁whole": 5059,
      "▁companies": 5060,
      "▁inj": 5061,
      "comes": 5062,
      "AA": 5063,
      "static": 5064,
      "▁primary": 5065,
      "▁write": 5066,
      "重庆": 5067,
      "iday": 5068,
      "▁natural": 5069,
      "CR": 5070,
      "Class": 5071,
      "任务": 5072,
      "▁spect": 5073,
      "ele": 5074,
      "▁recogn": 5075,
      "▁effective": 5076,
      "▁map": 5077,
      "\\\\\\\\": 5078,
      "illi": 5079,
      "甚至": 5080,
      "ocol": 5081,
      "▁By": 5082,
      "▁described": 5083,
      "送达后": 5084,
      "SUB": 5085,
      "▁href": 5086,
      "▁status": 5087,
      "thern": 5088,
      "▁Comp": 5089,
      "▁average": 5090,
      "▁April": 5091,
      "▁tw": 5092,
      "bol": 5093,
      "空间": 5094,
      "do": 5095,
      "term": 5096,
      "与被告": 5097,
      "▁Sim": 5098,
      "ANT": 5099,
      "server": 5100,
      "▁Off": 5101,
      "▁Germ": 5102,
      "author": 5103,
      "▁▁▁": 5104,
      "iven": 5105,
      ")(": 5106,
      "▁ey": 5107,
      "nthe": 5108,
      "▁stat": 5109,
      "▁Test": 5110,
      "__(": 5111,
      "▁additional": 5112,
      "本判决": 5113,
      "iful": 5114,
      "▁appear": 5115,
      "ln": 5116,
      "mand": 5117,
      "▁black": 5118,
      "▁indu": 5119,
      "▁condition": 5120,
      "▁births": 5121,
      "刑事": 5122,
      "▁ago": 5123,
      "百科": 5124,
      "▁center": 5125,
      "ades": 5126,
      "());\\": 5127,
      "▁seems": 5128,
      "▁Dep": 5129,
      "▁dam": 5130,
      "uz": 5131,
      "lick": 5132,
      "tx": 5133,
      "金融": 5134,
      "span": 5135,
      "旅游": 5136,
      "cs": 5137,
      "IM": 5138,
      "思想": 5139,
      "\"\"\"": 5140,
      "▁fem": 5141,
      "ided": 5142,
      "unt": 5143,
      "▁January": 5144,
      "▁tour": 5145,
      "▁concer": 5146,
      "推荐": 5147,
      "▁running": 5148,
      "上诉人": 5149,
      "变化": 5150,
      "文章": 5151,
      "▁mach": 5152,
      "sm": 5153,
      "aries": 5154,
      "pack": 5155,
      "▁likely": 5156,
      "▁weight": 5157,
      "▁pers": 5158,
      "▁sent": 5159,
      "▁Sept": 5160,
      "▁depend": 5161,
      "▁Bar": 5162,
      "Over": 5163,
      "培训": 5164,
      "Node": 5165,
      "保险": 5166,
      "▁command": 5167,
      "日向本院": 5168,
      "四川": 5169,
      "农业": 5170,
      "rown": 5171,
      "times": 5172,
      "output": 5173,
      "▁Man": 5174,
      "▁didn": 5175,
      "nSo": 5176,
      "▁display": 5177,
      "▁established": 5178,
      "▁distribution": 5179,
      "nHow": 5180,
      "关键": 5181,
      "ospital": 5182,
      "▁gene": 5183,
      "ensity": 5184,
      "just": 5185,
      "nSee": 5186,
      "For": 5187,
      "case": 5188,
      "nAl": 5189,
      "▁fig": 5190,
      "▁behavior": 5191,
      "××": 5192,
      "pecially": 5193,
      "eks": 5194,
      "▁June": 5195,
      "like": 5196,
      "local": 5197,
      "cal": 5198,
      "时代": 5199,
      "▁etc": 5200,
      "Ind": 5201,
      "▁ge": 5202,
      "ille": 5203,
      "▁consist": 5204,
      "ournal": 5205,
      "明显": 5206,
      "▁includes": 5207,
      "▁identify": 5208,
      "随着": 5209,
      "是一个": 5210,
      "▁reve": 5211,
      "aph": 5212,
      "OD": 5213,
      "不服": 5214,
      "视频": 5215,
      "▁App": 5216,
      "Message": 5217,
      "fort": 5218,
      "▁deal": 5219,
      "▁trying": 5220,
      "xim": 5221,
      "▁enh": 5222,
      "的问题": 5223,
      "png": 5224,
      "▁front": 5225,
      "kg": 5226,
      "Ent": 5227,
      "▁instead": 5228,
      "经验": 5229,
      "▁held": 5230,
      "▁War": 5231,
      "vis": 5232,
      "▁involved": 5233,
      "事务": 5234,
      "▁exact": 5235,
      "icrosoft": 5236,
      "江苏": 5237,
      "nCh": 5238,
      "▁item": 5239,
      "aker": 5240,
      "description": 5241,
      "▁wr": 5242,
      "音乐": 5243,
      "▁bring": 5244,
      "当事人": 5245,
      "▁Mon": 5246,
      "gy": 5247,
      "▁came": 5248,
      "▁accept": 5249,
      "Ad": 5250,
      "▁aud": 5251,
      "typ": 5252,
      "▁util": 5253,
      "▁taking": 5254,
      "重点": 5255,
      "关注": 5256,
      "▁aw": 5257,
      "ining": 5258,
      "istory": 5259,
      "性的": 5260,
      "eople": 5261,
      "la": 5262,
      "ECT": 5263,
      "条之规定": 5264,
      "summary": 5265,
      "▁ill": 5266,
      "费用": 5267,
      "一点": 5268,
      "aged": 5269,
      "respon": 5270,
      "▁Mat": 5271,
      "▁effort": 5272,
      "Fr": 5273,
      "▁offers": 5274,
      "距离": 5275,
      "▁happen": 5276,
      "current": 5277,
      "▁taken": 5278,
      "▁El": 5279,
      "apter": 5280,
      "▁Mc": 5281,
      "▁feed": 5282,
      "Se": 5283,
      "cing": 5284,
      "▁Trans": 5285,
      "ovember": 5286,
      "igr": 5287,
      "正常": 5288,
      "project": 5289,
      "达到": 5290,
      "Info": 5291,
      "](/": 5292,
      "witch": 5293,
      "CD": 5294,
      "▁multi": 5295,
      "的小": 5296,
      "▁General": 5297,
      "▁combin": 5298,
      "▁ra": 5299,
      "▁lines": 5300,
      "rad": 5301,
      "context": 5302,
      "unk": 5303,
      "airs": 5304,
      "oles": 5305,
      "(),": 5306,
      "▁someone": 5307,
      "▁West": 5308,
      "制作": 5309,
      "▁useful": 5310,
      "TR": 5311,
      "▁Sm": 5312,
      "nov": 5313,
      "pri": 5314,
      "All": 5315,
      "}_{": 5316,
      "ios": 5317,
      "▁记": 5318,
      "():\\": 5319,
      "▁tell": 5320,
      "商品": 5321,
      "▁difficult": 5322,
      "oe": 5323,
      "▁understanding": 5324,
      "广东": 5325,
      "Hand": 5326,
      "调查": 5327,
      "法律规定": 5328,
      "och": 5329,
      "▁box": 5330,
      "▁element": 5331,
      "▁label": 5332,
      "find": 5333,
      "▁became": 5334,
      "▁Afr": 5335,
      "▁written": 5336,
      "号民事": 5337,
      "alpha": 5338,
      "▁consum": 5339,
      "▁compl": 5340,
      "icip": 5341,
      "}$\\": 5342,
      "Equ": 5343,
      "otes": 5344,
      "uid": 5345,
      "▁experi": 5346,
      ")\\\\": 5347,
      "▁entire": 5348,
      "▁white": 5349,
      "权利": 5350,
      "方案": 5351,
      "ouch": 5352,
      "主义": 5353,
      "▁national": 5354,
      "lation": 5355,
      "不仅": 5356,
      "page": 5357,
      "▁Inter": 5358,
      "font": 5359,
      "iting": 5360,
      "▁performed": 5361,
      "aint": 5362,
      "▁np": 5363,
      "▁upd": 5364,
      "▁mind": 5365,
      "你们": 5366,
      "商业": 5367,
      "公开": 5368,
      "理由": 5369,
      "▁insp": 5370,
      "▁double": 5371,
      "立案": 5372,
      "▁prior": 5373,
      "以后": 5374,
      "▁其": 5375,
      "▁estim": 5376,
      "alls": 5377,
      "▁Mark": 5378,
      "▁\\\\\\\\": 5379,
      "check": 5380,
      "bo": 5381,
      "▁famil": 5382,
      "oved": 5383,
      "cember": 5384,
      "安徽": 5385,
      "特点": 5386,
      "▁July": 5387,
      "发布": 5388,
      "Date": 5389,
      "▁connect": 5390,
      "rip": 5391,
      "一种": 5392,
      "代码": 5393,
      "检查": 5394,
      "▁purch": 5395,
      "文学": 5396,
      "enced": 5397,
      "aves": 5398,
      "ham": 5399,
      "Up": 5400,
      "related": 5401,
      "▁active": 5402,
      "uel": 5403,
      "离婚": 5404,
      "▁October": 5405,
      "▁education": 5406,
      "造成": 5407,
      "▁行": 5408,
      "App": 5409,
      "▁especially": 5410,
      "atives": 5411,
      "▁und": 5412,
      "ufact": 5413,
      "实验": 5414,
      "Is": 5415,
      "Code": 5416,
      "▁suff": 5417,
      "▁news": 5418,
      "ani": 5419,
      "TP": 5420,
      "减刑": 5421,
      "▁den": 5422,
      "ottom": 5423,
      "拥有": 5424,
      "▁club": 5425,
      "▁sem": 5426,
      "▁replac": 5427,
      "名称": 5428,
      "▁medical": 5429,
      "▁Red": 5430,
      "aily": 5431,
      "▁cannot": 5432,
      "▁Park": 5433,
      "▁Ac": 5434,
      "upt": 5435,
      "▁Act": 5436,
      "▁claim": 5437,
      "语言": 5438,
      "现场": 5439,
      "▁tax": 5440,
      "卫生": 5441,
      "miss": 5442,
      "▁saf": 5443,
      "▁expect": 5444,
      "▁August": 5445,
      "rypt": 5446,
      "▁focus": 5447,
      "len": 5448,
      "▁pret": 5449,
      "▁dest": 5450,
      "alid": 5451,
      "▁regular": 5452,
      "▁fast": 5453,
      "aled": 5454,
      "▁Center": 5455,
      "▁films": 5456,
      "OL": 5457,
      "▁September": 5458,
      "ees": 5459,
      "write": 5460,
      "▁location": 5461,
      "▁(\\": 5462,
      "▁recept": 5463,
      "▁round": 5464,
      "▁difference": 5465,
      "process": 5466,
      "▁cause": 5467,
      "最高人民法院关于": 5468,
      "files": 5469,
      "▁speed": 5470,
      "▁private": 5471,
      "经理": 5472,
      "join": 5473,
      "ancial": 5474,
      "物业": 5475,
      "aven": 5476,
      "▁tests": 5477,
      "hemat": 5478,
      "形式": 5479,
      "align": 5480,
      "ceed": 5481,
      "▁platform": 5482,
      "bor": 5483,
      "ards": 5484,
      "▁practice": 5485,
      "▁bound": 5486,
      "▁client": 5487,
      "▁observed": 5488,
      "比如": 5489,
      "▁probably": 5490,
      "十五": 5491,
      "保证": 5492,
      "对方": 5493,
      "roph": 5494,
      "▁images": 5495,
      "▁office": 5496,
      "andid": 5497,
      "▁contract": 5498,
      "▁player": 5499,
      "▁rather": 5500,
      "▁considered": 5501,
      "rial": 5502,
      "▁living": 5503,
      "efore": 5504,
      "otal": 5505,
      "▁root": 5506,
      "▁weeks": 5507,
      "▁vill": 5508,
      "方向": 5509,
      "▁unit": 5510,
      "▁band": 5511,
      "今年": 5512,
      "▁activities": 5513,
      "▁hope": 5514,
      "本院于": 5515,
      "全部": 5516,
      "iet": 5517,
      "vey": 5518,
      "▁English": 5519,
      "ailed": 5520,
      "leep": 5521,
      "nif": 5522,
      "call": 5523,
      "next": 5524,
      "En": 5525,
      "▁fit": 5526,
      "Build": 5527,
      "▁defined": 5528,
      "BA": 5529,
      "▁went": 5530,
      "event": 5531,
      "ping": 5532,
      "ij": 5533,
      "▁friend": 5534,
      "全面": 5535,
      "ocal": 5536,
      "▁ability": 5537,
      "▁solutions": 5538,
      "数字": 5539,
      "并且": 5540,
      "▁Sub": 5541,
      "izer": 5542,
      "iance": 5543,
      "才能": 5544,
      "nnamespace": 5545,
      "ken": 5546,
      "▁More": 5547,
      "▁Group": 5548,
      "▁format": 5549,
      "首先": 5550,
      "左右": 5551,
      "▁accur": 5552,
      "REF": 5553,
      "lock": 5554,
      "aul": 5555,
      "▁obtained": 5556,
      "char": 5557,
      "▁face": 5558,
      "农民": 5559,
      "nes": 5560,
      "Des": 5561,
      "▁House": 5562,
      "▁Pres": 5563,
      "bed": 5564,
      "atur": 5565,
      "null": 5566,
      "▁mid": 5567,
      "He": 5568,
      "ective": 5569,
      "response": 5570,
      "身体": 5571,
      "▁November": 5572,
      "▁stress": 5573,
      "▁sil": 5574,
      "iques": 5575,
      "▁maint": 5576,
      "▁everything": 5577,
      "▁Public": 5578,
      "ocket": 5579,
      "当然": 5580,
      "ii": 5581,
      "▁prec": 5582,
      "▁Pat": 5583,
      "▁analy": 5584,
      "ql": 5585,
      "一年": 5586,
      "都有": 5587,
      "Client": 5588,
      "')": 5589,
      "augh": 5590,
      "▁compos": 5591,
      "Not": 5592,
      "现已": 5593,
      "▁parameters": 5594,
      "loat": 5595,
      "ools": 5596,
      "([": 5597,
      "准备": 5598,
      "▁regul": 5599,
      "▁staff": 5600,
      "▁node": 5601,
      "▁popular": 5602,
      "inition": 5603,
      "EL": 5604,
      "▁ut": 5605,
      "nOn": 5606,
      "▁Ag": 5607,
      "▁allows": 5608,
      "▁ful": 5609,
      "▁pressure": 5610,
      "▁See": 5611,
      "TH": 5612,
      "apping": 5613,
      "儿童": 5614,
      "acc": 5615,
      "▁La": 5616,
      "argin": 5617,
      "▁recently": 5618,
      "▁True": 5619,
      "ado": 5620,
      "▁]": 5621,
      "说明": 5622,
      "▁highly": 5623,
      "▁store": 5624,
      "enu": 5625,
      "▁global": 5626,
      "▁dynam": 5627,
      "SD": 5628,
      "阅读": 5629,
      "last": 5630,
      "参数": 5631,
      "▁applications": 5632,
      "Response": 5633,
      "heme": 5634,
      "就会": 5635,
      "che": 5636,
      "▁named": 5637,
      "PL": 5638,
      "▁len": 5639,
      "▁sus": 5640,
      "\\');\\": 5641,
      "source": 5642,
      "dec": 5643,
      "协议": 5644,
      "▁late": 5645,
      "gs": 5646,
      "Component": 5647,
      "智能": 5648,
      "▁forward": 5649,
      "▁surg": 5650,
      "enses": 5651,
      "也有": 5652,
      "bug": 5653,
      "十九": 5654,
      "本次执行": 5655,
      "充分": 5656,
      "▁Sw": 5657,
      "▁December": 5658,
      "▁customers": 5659,
      "实施": 5660,
      "▁matrix": 5661,
      "Controller": 5662,
      "ico": 5663,
      "▁intr": 5664,
      "进一步": 5665,
      "▁inside": 5666,
      "▁directly": 5667,
      "▁League": 5668,
      "({": 5669,
      "Inter": 5670,
      "▁stay": 5671,
      "▁server": 5672,
      "▁package": 5673,
      "////": 5674,
      "▁click": 5675,
      "commit": 5676,
      "创建": 5677,
      "▁acid": 5678,
      "ampionship": 5679,
      "加强": 5680,
      "▁vers": 5681,
      "▁official": 5682,
      "button": 5683,
      "超过": 5684,
      "hood": 5685,
      "十三": 5686,
      "▁concept": 5687,
      "▁town": 5688,
      "▁section": 5689,
      "cell": 5690,
      "人们": 5691,
      "models": 5692,
      "民族": 5693,
      "▁walk": 5694,
      "▁girl": 5695,
      "rl": 5696,
      "rench": 5697,
      "▁international": 5698,
      "▁bed": 5699,
      "eline": 5700,
      "▁Japan": 5701,
      "规划": 5702,
      "level": 5703,
      "':": 5704,
      "建立": 5705,
      "▁continue": 5706,
      "是在": 5707,
      "审查": 5708,
      "下的": 5709,
      "同学": 5710,
      "ipe": 5711,
      "办公": 5712,
      "true": 5713,
      "IF": 5714,
      "满足": 5715,
      "▁attempt": 5716,
      "公安": 5717,
      "优秀": 5718,
      "rome": 5719,
      "older": 5720,
      "System": 5721,
      "ypes": 5722,
      "▁ways": 5723,
      "ondon": 5724,
      "rote": 5725,
      "▁uses": 5726,
      "Def": 5727,
      "▁长": 5728,
      "▁anything": 5729,
      "gl": 5730,
      "▁security": 5731,
      "▁Ne": 5732,
      "isf": 5733,
      "几个": 5734,
      "▁increasing": 5735,
      "email": 5736,
      "▁ensure": 5737,
      "▁almost": 5738,
      "closed": 5739,
      "▁download": 5740,
      "评价": 5741,
      "OP": 5742,
      "▁liter": 5743,
      "▁Post": 5744,
      "ds": 5745,
      "措施": 5746,
      "ifier": 5747,
      "▁hyper": 5748,
      "判断": 5749,
      "long": 5750,
      "▁sites": 5751,
      "只要": 5752,
      "未来": 5753,
      "coming": 5754,
      "reet": 5755,
      "MM": 5756,
      "期限": 5757,
      "▁Cr": 5758,
      "七年": 5759,
      "▁‘": 5760,
      "▁comment": 5761,
      "Pr": 5762,
      "acity": 5763,
      "abled": 5764,
      "问题的": 5765,
      "考虑": 5766,
      "体系": 5767,
      "驾驶": 5768,
      "▁surv": 5769,
      "每天": 5770,
      "bruary": 5771,
      "▁contains": 5772,
      "eration": 5773,
      "▁draw": 5774,
      "▁leading": 5775,
      "De": 5776,
      "第四": 5777,
      "报告": 5778,
      "Array": 5779,
      "第一百四十": 5780,
      "With": 5781,
      "▁ste": 5782,
      "bon": 5783,
      "每个": 5784,
      "性能": 5785,
      "▁constant": 5786,
      "▁quite": 5787,
      "▁veh": 5788,
      "地址": 5789,
      "▁proced": 5790,
      "▁wond": 5791,
      "▁Here": 5792,
      "▁told": 5793,
      "平均": 5794,
      "react": 5795,
      "izes": 5796,
      "调解": 5797,
      "nAnd": 5798,
      "▁evidence": 5799,
      "▁road": 5800,
      "除了": 5801,
      "▁takes": 5802,
      "▁seem": 5803,
      "给出": 5804,
      "▁station": 5805,
      "公诉": 5806,
      "输入": 5807,
      "▁arr": 5808,
      "▁simply": 5809,
      "▁device": 5810,
      "fit": 5811,
      "ambda": 5812,
      "▁ground": 5813,
      "ocker": 5814,
      "known": 5815,
      "▁Up": 5816,
      "▁Set": 5817,
      "ara": 5818,
      ")*": 5819,
      "▁interface": 5820,
      "bf": 5821,
      "▁CD": 5822,
      "▁neuro": 5823,
      "▁PR": 5824,
      "SC": 5825,
      "oon": 5826,
      "检测": 5827,
      "▁sequence": 5828,
      "▁wait": 5829,
      "制度": 5830,
      "▁Dec": 5831,
      "▁items": 5832,
      "pty": 5833,
      "▁necessary": 5834,
      "交流": 5835,
      "rightarrow": 5836,
      "sych": 5837,
      "▁contr": 5838,
      "ociation": 5839,
      "不知道": 5840,
      "ocr": 5841,
      "▁believe": 5842,
      "培养": 5843,
      "define": 5844,
      "▁gas": 5845,
      "▁College": 5846,
      "有些": 5847,
      "▁travel": 5848,
      "徒刑": 5849,
      "立即": 5850,
      "▁brain": 5851,
      "▁therapy": 5852,
      "▁Data": 5853,
      "参与": 5854,
      "考试": 5855,
      "What": 5856,
      "But": 5857,
      "As": 5858,
      "▁Russ": 5859,
      "▁elements": 5860,
      "期徒刑": 5861,
      "▁que": 5862,
      "五年": 5863,
      "那个": 5864,
      "▁capt": 5865,
      "Be": 5866,
      "▁projects": 5867,
      "oke": 5868,
      "本院在": 5869,
      "不可": 5870,
      "▁sample": 5871,
      "arter": 5872,
      "合同纠纷一案": 5873,
      "▁respectively": 5874,
      "otic": 5875,
      "本裁定送达后": 5876,
      "css": 5877,
      "▁Then": 5878,
      "联网": 5879,
      "人物": 5880,
      "只能": 5881,
      "%,": 5882,
      "▁friends": 5883,
      "▁His": 5884,
      "merc": 5885,
      "程度": 5886,
      "ican": 5887,
      "▁direction": 5888,
      "hema": 5889,
      "())\\": 5890,
      "▁Ang": 5891,
      "▁anim": 5892,
      "▁choose": 5893,
      "New": 5894,
      "▁commit": 5895,
      "当时": 5896,
      "事务所": 5897,
      "的财产": 5898,
      "机械": 5899,
      "六年": 5900,
      "▁worked": 5901,
      "lymp": 5902,
      "root": 5903,
      "PC": 5904,
      "速度": 5905,
      "数量": 5906,
      "II": 5907,
      "▁produced": 5908,
      "atively": 5909,
      "改革": 5910,
      "itude": 5911,
      "raz": 5912,
      "▁International": 5913,
      "市中级人民法院": 5914,
      "]:": 5915,
      "▁board": 5916,
      "▁latest": 5917,
      "Of": 5918,
      "▁beautiful": 5919,
      "iforn": 5920,
      "avid": 5921,
      "ster": 5922,
      "nWhen": 5923,
      "tual": 5924,
      "estern": 5925,
      "Element": 5926,
      "igen": 5927,
      "本次执行程序": 5928,
      "▁Ed": 5929,
      "mathbb": 5930,
      "urance": 5931,
      "▁deriv": 5932,
      "clus": 5933,
      "olar": 5934,
      "▁instance": 5935,
      "▁looks": 5936,
      ",\\\\": 5937,
      "more": 5938,
      "ington": 5939,
      "ancy": 5940,
      "▁emer": 5941,
      "认定": 5942,
      "课程": 5943,
      "▁establish": 5944,
      "▁temperature": 5945,
      "电话": 5946,
      "ued": 5947,
      "ians": 5948,
      "自治": 5949,
      "▁soon": 5950,
      "▁Copyright": 5951,
      "制造": 5952,
      "grad": 5953,
      "理解": 5954,
      "avy": 5955,
      "}{\\\\": 5956,
      "▁isn": 5957,
      "exp": 5958,
      "▁prep": 5959,
      "心理": 5960,
      "媒体": 5961,
      "英语": 5962,
      "▁bad": 5963,
      "▁Please": 5964,
      "成本": 5965,
      "▁altern": 5966,
      "▁Sch": 5967,
      "nTr": 5968,
      "▁plac": 5969,
      "▁>>": 5970,
      "保持": 5971,
      "▁basis": 5972,
      "ociety": 5973,
      "坚持": 5974,
      "lections": 5975,
      "分享": 5976,
      "▁blog": 5977,
      "▁broad": 5978,
      "idget": 5979,
      "ocks": 5980,
      "下来": 5981,
      "适合": 5982,
      "▁tim": 5983,
      "▁favor": 5984,
      "oes": 5985,
      "▁receive": 5986,
      "▁District": 5987,
      "elta": 5988,
      "▁compar": 5989,
      "▁obtain": 5990,
      "针对": 5991,
      "哪些": 5992,
      "▁variety": 5993,
      "ellow": 5994,
      "▁India": 5995,
      "update": 5996,
      "▁wide": 5997,
      "▁fire": 5998,
      "service": 5999,
      "社区": 6000,
      "▁send": 6001,
      "An": 6002,
      "第六": 6003,
      "▁presented": 6004,
      "semb": 6005,
      "}(": 6006,
      "▁degree": 6007,
      "▁transfer": 6008,
      "▁identified": 6009,
      "的情况": 6010,
      "ifornia": 6011,
      "▁parts": 6012,
      "wise": 6013,
      "SP": 6014,
      "风险": 6015,
      "Manager": 6016,
      "icians": 6017,
      "cel": 6018,
      "许多": 6019,
      "▁party": 6020,
      "▁王": 6021,
      "hing": 6022,
      "中央": 6023,
      "eader": 6024,
      "联合": 6025,
      "持续": 6026,
      "Input": 6027,
      "▁resid": 6028,
      "▁attack": 6029,
      "etime": 6030,
      "▁sort": 6031,
      "▁ult": 6032,
      "严重": 6033,
      "资金": 6034,
      "▁computer": 6035,
      "orph": 6036,
      "auth": 6037,
      "交易": 6038,
      "▁greater": 6039,
      "▁gives": 6040,
      "\"]": 6041,
      "▁stage": 6042,
      "加入": 6043,
      "Base": 6044,
      "▁numer": 6045,
      "ka": 6046,
      "▁rates": 6047,
      "丰富": 6048,
      "▁qual": 6049,
      "iers": 6050,
      "▁From": 6051,
      "▁born": 6052,
      "▁usually": 6053,
      "▁physical": 6054,
      "深圳": 6055,
      "意见": 6056,
      "▁throughout": 6057,
      "itect": 6058,
      "指导": 6059,
      "▁Mus": 6060,
      "CP": 6061,
      "内容简介": 6062,
      "比赛": 6063,
      "▁ax": 6064,
      "parse": 6065,
      "▁Str": 6066,
      "▁Dis": 6067,
      "▁moment": 6068,
      "duc": 6069,
      "咨询": 6070,
      "▁poly": 6071,
      "初字第": 6072,
      "ship": 6073,
      "合法": 6074,
      "▁February": 6075,
      "▁hypot": 6076,
      "iciency": 6077,
      "▁Just": 6078,
      "全球": 6079,
      "▁tools": 6080,
      "▁secret": 6081,
      "▁deliver": 6082,
      "None": 6083,
      "▁studied": 6084,
      "增长": 6085,
      "收取": 6086,
      "▁theory": 6087,
      "▁male": 6088,
      "▁longer": 6089,
      "oz": 6090,
      "▁oil": 6091,
      "▁watch": 6092,
      "▁district": 6093,
      "▁matter": 6094,
      "设置": 6095,
      "Trans": 6096,
      "▁RE": 6097,
      "▁London": 6098,
      "▁existing": 6099,
      "不得": 6100,
      "▁wor": 6101,
      "asons": 6102,
      "▁skin": 6103,
      "itation": 6104,
      "感情": 6105,
      "erve": 6106,
      "▁Inc": 6107,
      "java": 6108,
      "▁CON": 6109,
      "den": 6110,
      "tic": 6111,
      "▁manufact": 6112,
      "北省": 6113,
      "document": 6114,
      "▁Rev": 6115,
      "abs": 6116,
      "Override": 6117,
      "▁Char": 6118,
      "hy": 6119,
      "method": 6120,
      "nw": 6121,
      "▁construct": 6122,
      "target": 6123,
      "Rep": 6124,
      "▁reading": 6125,
      "msg": 6126,
      "nBut": 6127,
      "anel": 6128,
      "stream": 6129,
      "细胞": 6130,
      "▁resources": 6131,
      "▁King": 6132,
      "▁anti": 6133,
      "▁states": 6134,
      "▁Spec": 6135,
      "DS": 6136,
      "river": 6137,
      "▁upon": 6138,
      "医学百科": 6139,
      "▁Your": 6140,
      "▁words": 6141,
      "更加": 6142,
      "itc": 6143,
      "▁rights": 6144,
      "生物": 6145,
      "\\\\_": 6146,
      "▁Air": 6147,
      "正在": 6148,
      "except": 6149,
      "稳定": 6150,
      "检察院": 6151,
      "▁PM": 6152,
      "TS": 6153,
      "三角": 6154,
      "查明": 6155,
      "特色": 6156,
      "律师事务所": 6157,
      "ias": 6158,
      "这样的": 6159,
      "越来": 6160,
      "▁Inst": 6161,
      "▁nucle": 6162,
      "取得": 6163,
      "~~~\\": 6164,
      "西省": 6165,
      "有期徒刑": 6166,
      "gener": 6167,
      "If": 6168,
      "oice": 6169,
      "asks": 6170,
      "Ap": 6171,
      "▁plant": 6172,
      "▁approxim": 6173,
      "ptions": 6174,
      "监狱": 6175,
      "▁${": 6176,
      "▁techniques": 6177,
      "▁save": 6178,
      "▁equal": 6179,
      "▁nil": 6180,
      "nh": 6181,
      "▁::": 6182,
      "▁Now": 6183,
      "保障": 6184,
      "Gener": 6185,
      "▁AM": 6186,
      "▁force": 6187,
      "▁except": 6188,
      "pm": 6189,
      "▁materials": 6190,
      "越来越": 6191,
      "购买": 6192,
      "区域": 6193,
      "样的": 6194,
      "▁linear": 6195,
      "td": 6196,
      "目录": 6197,
      "▁essential": 6198,
      "体验": 6199,
      "▁optim": 6200,
      "用于": 6201,
      "专家": 6202,
      "▁Health": 6203,
      "git": 6204,
      "ighest": 6205,
      "提交": 6206,
      "代理审判员": 6207,
      "▁outside": 6208,
      "点击": 6209,
      "运行": 6210,
      "▁challeng": 6211,
      "▁First": 6212,
      "▁China": 6213,
      "新闻": 6214,
      "阶段": 6215,
      "▁fall": 6216,
      "▁algorithm": 6217,
      "ATE": 6218,
      "▁extra": 6219,
      "因素": 6220,
      "那些": 6221,
      "▁Acc": 6222,
      "求出": 6223,
      "▁wrong": 6224,
      "后的": 6225,
      "为主": 6226,
      "▁Pre": 6227,
      "输出": 6228,
      "▁DNA": 6229,
      "广告": 6230,
      "▁British": 6231,
      "▁pretty": 6232,
      "cdot": 6233,
      "elves": 6234,
      "改造": 6235,
      "▁phone": 6236,
      "▁Thanks": 6237,
      "▁testing": 6238,
      "▁\\\\\\": 6239,
      "iece": 6240,
      "▁李": 6241,
      "alle": 6242,
      "▁mechanisms": 6243,
      "合理": 6244,
      "第七": 6245,
      "▁remain": 6246,
      "▁basic": 6247,
      "▁Har": 6248,
      "▁Out": 6249,
      "促进": 6250,
      "▁served": 6251,
      "出了": 6252,
      "CA": 6253,
      "▁distance": 6254,
      "▁task": 6255,
      "▁selected": 6256,
      "aign": 6257,
      "erved": 6258,
      "plications": 6259,
      "第五": 6260,
      "人才": 6261,
      "RA": 6262,
      "▁America": 6263,
      "▁Some": 6264,
      "▁birth": 6265,
      "▁promot": 6266,
      "▁reach": 6267,
      "食品": 6268,
      "受到": 6269,
      "uccess": 6270,
      "▁programs": 6271,
      "pg": 6272,
      "▁sn": 6273,
      "▁God": 6274,
      "ran": 6275,
      "▁apply": 6276,
      "改变": 6277,
      "▁url": 6278,
      "▁Def": 6279,
      "▁overall": 6280,
      "▁$(": 6281,
      "vider": 6282,
      "▁bal": 6283,
      "有人": 6284,
      "▁central": 6285,
      "merican": 6286,
      "]);\\": 6287,
      "▁itself": 6288,
      "测试": 6289,
      "▁providing": 6290,
      "不同的": 6291,
      "stitute": 6292,
      "▁California": 6293,
      "options": 6294,
      "▁Mich": 6295,
      "▁critical": 6296,
      "▁hit": 6297,
      "员工": 6298,
      "▁fib": 6299,
      "TO": 6300,
      "century": 6301,
      "GB": 6302,
      "▁phase": 6303,
      "KE": 6304,
      "▁policy": 6305,
      "▁transform": 6306,
      "解答": 6307,
      "都会": 6308,
      "ooth": 6309,
      "levant": 6310,
      "▁decision": 6311,
      "▁San": 6312,
      "宣传": 6313,
      "Inst": 6314,
      "▁doc": 6315,
      "犯罪": 6316,
      "yles": 6317,
      "▁negative": 6318,
      "统计": 6319,
      "以来": 6320,
      "设施": 6321,
      "▁entry": 6322,
      "▁Class": 6323,
      "ponents": 6324,
      "▁presence": 6325,
      "我们的": 6326,
      "eps": 6327,
      "▁component": 6328,
      "win": 6329,
      "量的": 6330,
      "And": 6331,
      "▁individuals": 6332,
      "admin": 6333,
      "▁mer": 6334,
      "mercial": 6335,
      "▁height": 6336,
      "优势": 6337,
      "uge": 6338,
      "())": 6339,
      "▁张": 6340,
      "民间": 6341,
      "plies": 6342,
      "ca": 6343,
      "▁choice": 6344,
      "人民检察院": 6345,
      "▁vit": 6346,
      "的发展": 6347,
      "▁variables": 6348,
      "block": 6349,
      "直线": 6350,
      "▁cal": 6351,
      "▁avoid": 6352,
      "utils": 6353,
      "▁Google": 6354,
      "快速": 6355,
      "恢复": 6356,
      "see": 6357,
      "levision": 6358,
      "▁applied": 6359,
      "eturn": 6360,
      "▁candid": 6361,
      "身份": 6362,
      "▁Fl": 6363,
      "Size": 6364,
      "性质": 6365,
      "ords": 6366,
      "是一种": 6367,
      "记者": 6368,
      "▁everyone": 6369,
      "ulations": 6370,
      "images": 6371,
      "▁sal": 6372,
      "number": 6373,
      "▁src": 6374,
      "nCom": 6375,
      "▁satisf": 6376,
      "▁easily": 6377,
      "▁synt": 6378,
      "hent": 6379,
      "▁sound": 6380,
      "ounced": 6381,
      "成绩": 6382,
      "土地": 6383,
      "▁Bro": 6384,
      "▁Found": 6385,
      "协会": 6386,
      "体育": 6387,
      "VER": 6388,
      "▁limited": 6389,
      "enge": 6390,
      "▁reduce": 6391,
      "▁stim": 6392,
      "免费": 6393,
      "▁Work": 6394,
      "▁progress": 6395,
      "▁deep": 6396,
      "nand": 6397,
      "show": 6398,
      "ytes": 6399,
      "▁places": 6400,
      "办法": 6401,
      "的高": 6402,
      "申请执行": 6403,
      "▁Open": 6404,
      "▁Det": 6405,
      "告诉": 6406,
      "▁transport": 6407,
      "别人": 6408,
      "▁financial": 6409,
      "▁son": 6410,
      "height": 6411,
      "▁shop": 6412,
      "▁cam": 6413,
      "再次": 6414,
      "▁divid": 6415,
      "\"></": 6416,
      "utive": 6417,
      "python": 6418,
      "服刑": 6419,
      "ares": 6420,
      "▁coming": 6421,
      "▁highest": 6422,
      "▁sense": 6423,
      "▁Math": 6424,
      "实践": 6425,
      "vention": 6426,
      "Ass": 6427,
      "elt": 6428,
      "▁volume": 6429,
      "▁modern": 6430,
      "▁variable": 6431,
      "theta": 6432,
      "weet": 6433,
      "找到": 6434,
      "Out": 6435,
      "▁ready": 6436,
      "/(": 6437,
      "▁Indian": 6438,
      "nAn": 6439,
      "▁independent": 6440,
      "▁UK": 6441,
      "▁join": 6442,
      "icket": 6443,
      "yr": 6444,
      "经常": 6445,
      "▁cook": 6446,
      "医疗": 6447,
      "▁components": 6448,
      "用的": 6449,
      "essages": 6450,
      "工具": 6451,
      "意思": 6452,
      "▁led": 6453,
      "DF": 6454,
      "orge": 6455,
      "地产": 6456,
      "bra": 6457,
      "查封": 6458,
      "****************": 6459,
      "No": 6460,
      "▁anyone": 6461,
      "}$$": 6462,
      "QL": 6463,
      "XX": 6464,
      "▁correspon": 6465,
      "ael": 6466,
      "npackage": 6467,
      "▁namespace": 6468,
      "//\\": 6469,
      "▁safety": 6470,
      "联系": 6471,
      "Sub": 6472,
      "二〇一七年": 6473,
      "▁mode": 6474,
      "▁achieve": 6475,
      "创作": 6476,
      "<<": 6477,
      "▁molecular": 6478,
      "是什么": 6479,
      "施工": 6480,
      "types": 6481,
      "Image": 6482,
      "▁Sk": 6483,
      "强制": 6484,
      "▁Nor": 6485,
      "错误": 6486,
      "amin": 6487,
      "▁missing": 6488,
      "▁vector": 6489,
      "互联网": 6490,
      "▁behind": 6491,
      "ba": 6492,
      "ocation": 6493,
      "split": 6494,
      "etch": 6495,
      "DA": 6496,
      "十八": 6497,
      "真正": 6498,
      "ameter": 6499,
      "▁functional": 6500,
      "▁countries": 6501,
      "到庭": 6502,
      "▁Em": 6503,
      "▁Ital": 6504,
      "▁hon": 6505,
      "▁assum": 6506,
      "edia": 6507,
      "ously": 6508,
      "NU": 6509,
      "({\\": 6510,
      "ala": 6511,
      "▁Ant": 6512,
      "first": 6513,
      "icens": 6514,
      "▁\\\\)": 6515,
      "▁hor": 6516,
      "机会": 6517,
      "space": 6518,
      "ipment": 6519,
      "▁}}": 6520,
      "Index": 6521,
      "▁rap": 6522,
      "▁driv": 6523,
      "iring": 6524,
      "▁API": 6525,
      "贷款": 6526,
      "SON": 6527,
      "ste": 6528,
      "生态": 6529,
      "▁类型": 6530,
      "▁conc": 6531,
      "▁enter": 6532,
      "uster": 6533,
      "▁rev": 6534,
      "都不": 6535,
      "osure": 6536,
      "▁Cons": 6537,
      "审理终结": 6538,
      "False": 6539,
      "▁skills": 6540,
      "SA": 6541,
      "▁streng": 6542,
      "整个": 6543,
      "▁student": 6544,
      "istr": 6545,
      "orial": 6546,
      "开庭": 6547,
      "▁proteins": 6548,
      "认识": 6549,
      "▁pull": 6550,
      "▁Port": 6551,
      "从而": 6552,
      "▁script": 6553,
      "▁ideas": 6554,
      "▁Her": 6555,
      "▁princ": 6556,
      "product": 6557,
      "▁scient": 6558,
      "▁args": 6559,
      "减少": 6560,
      "▁Department": 6561,
      "年来": 6562,
      "tes": 6563,
      "console": 6564,
      "mt": 6565,
      "▁immed": 6566,
      "模型": 6567,
      "确认": 6568,
      "小学": 6569,
      "Count": 6570,
      "▁appropri": 6571,
      "▁Dem": 6572,
      "福建": 6573,
      "nPro": 6574,
      "▁asked": 6575,
      "arily": 6576,
      "You": 6577,
      "Result": 6578,
      "生命": 6579,
      "经历": 6580,
      "临床": 6581,
      "Page": 6582,
      "▁completed": 6583,
      "▁coord": 6584,
      "律师事务所律师": 6585,
      "witter": 6586,
      "pite": 6587,
      "leq": 6588,
      "核心": 6589,
      "BN": 6590,
      "ida": 6591,
      "ecause": 6592,
      "wood": 6593,
      "▁isol": 6594,
      "▁dog": 6595,
      "select": 6596,
      "▁President": 6597,
      "det": 6598,
      "ections": 6599,
      "▁opportunity": 6600,
      "zym": 6601,
      "如不服": 6602,
      "▁followed": 6603,
      "▁register": 6604,
      "velopment": 6605,
      "ivery": 6606,
      "Action": 6607,
      "人口": 6608,
      "▁processes": 6609,
      "▁digital": 6610,
      "最终": 6611,
      "ening": 6612,
      "▁recommend": 6613,
      "▁solve": 6614,
      "▁reduced": 6615,
      "▁reference": 6616,
      "here": 6617,
      "阳市": 6618,
      "At": 6619,
      "▁Val": 6620,
      "由原告": 6621,
      "移动": 6622,
      "posed": 6623,
      "调整": 6624,
      "▁visual": 6625,
      "Reg": 6626,
      "mitted": 6627,
      "降低": 6628,
      "记录": 6629,
      "sv": 6630,
      "▁contribut": 6631,
      "common": 6632,
      "▁hydro": 6633,
      "template": 6634,
      "ologies": 6635,
      "想要": 6636,
      "▁ANY": 6637,
      "山东省": 6638,
      "attle": 6639,
      "▁Of": 6640,
      "riter": 6641,
      "IONS": 6642,
      "▁clients": 6643,
      "体的": 6644,
      "ulate": 6645,
      "▁customer": 6646,
      "▁brand": 6647,
      "▁extrem": 6648,
      "ycl": 6649,
      "▁antib": 6650,
      "▁began": 6651,
      "lands": 6652,
      "rupt": 6653,
      "本院依法": 6654,
      "IB": 6655,
      "dist": 6656,
      "现已审理终结": 6657,
      "及其": 6658,
      "password": 6659,
      "Handler": 6660,
      "▁fields": 6661,
      "▁Log": 6662,
      "alculate": 6663,
      "▁wanted": 6664,
      "▁tried": 6665,
      "▁Day": 6666,
      "版本": 6667,
      "▁maximum": 6668,
      "Le": 6669,
      "车辆": 6670,
      "band": 6671,
      "事件": 6672,
      "ager": 6673,
      "▁attention": 6674,
      "▁acqu": 6675,
      "里的": 6676,
      "及时": 6677,
      "压力": 6678,
      "▁assist": 6679,
      "▁samples": 6680,
      "▁units": 6681,
      "▁meeting": 6682,
      "▁exhib": 6683,
      "token": 6684,
      "ris": 6685,
      "认真": 6686,
      "就可以": 6687,
      "▁histor": 6688,
      "运用": 6689,
      "▁Australia": 6690,
      "▁construction": 6691,
      "amily": 6692,
      "parent": 6693,
      "▁tumor": 6694,
      "文书": 6695,
      "\"/": 6696,
      "▁playing": 6697,
      "Rec": 6698,
      "Color": 6699,
      "▁lost": 6700,
      "即发生法律效力": 6701,
      "▁discover": 6702,
      "▁tissue": 6703,
      "至今": 6704,
      "illing": 6705,
      "▁row": 6706,
      "mathrm": 6707,
      "出的": 6708,
      "另外": 6709,
      "不好": 6710,
      "▁TV": 6711,
      "▁第": 6712,
      "▁slow": 6713,
      "omb": 6714,
      "nfunc": 6715,
      "ario": 6716,
      "▁Free": 6717,
      "gu": 6718,
      "ervices": 6719,
      "▁User": 6720,
      "方便": 6721,
      "清楚": 6722,
      "▁square": 6723,
      "天津": 6724,
      "▁domain": 6725,
      "▁Are": 6726,
      "▁Fin": 6727,
      "▁forms": 6728,
      "二〇一六年": 6729,
      "bot": 6730,
      "电脑": 6731,
      "▁Mod": 6732,
      "break": 6733,
      "定义": 6734,
      "被申请人": 6735,
      "约定": 6736,
      "tf": 6737,
      "工艺": 6738,
      "▁While": 6739,
      "▁village": 6740,
      "za": 6741,
      "▁efficient": 6742,
      "▁instit": 6743,
      "Status": 6744,
      "ya": 6745,
      "ascular": 6746,
      "做好": 6747,
      "elcome": 6748,
      "otype": 6749,
      "nLiving": 6750,
      "fty": 6751,
      "三个": 6752,
      "plot": 6753,
      "lier": 6754,
      "Te": 6755,
      "应的": 6756,
      "债务": 6757,
      "疾病": 6758,
      "nSolution": 6759,
      "可在": 6760,
      "▁purpose": 6761,
      "master": 6762,
      "omas": 6763,
      "▁starting": 6764,
      "▁determined": 6765,
      "▁theore": 6766,
      "icial": 6767,
      "▁Research": 6768,
      "监督": 6769,
      "▁memory": 6770,
      "▁frequency": 6771,
      "竞争": 6772,
      "加工": 6773,
      "演员": 6774,
      "长期": 6775,
      "background": 6776,
      "GF": 6777,
      "tag": 6778,
      "▁books": 6779,
      "▁Aut": 6780,
      "CS": 6781,
      "▁Black": 6782,
      "表达": 6783,
      "注册": 6784,
      "nl": 6785,
      "▁Direct": 6786,
      "acing": 6787,
      "▁cop": 6788,
      "filter": 6789,
      "▁subst": 6790,
      "结论": 6791,
      "七条": 6792,
      "▁nice": 6793,
      "日生": 6794,
      "▁wall": 6795,
      "▁Techn": 6796,
      "▁WAR": 6797,
      "push": 6798,
      "▁differences": 6799,
      "▁setting": 6800,
      "▁daily": 6801,
      "▁closed": 6802,
      "igation": 6803,
      "▁leave": 6804,
      "生的": 6805,
      "▁machine": 6806,
      "elebr": 6807,
      "下面": 6808,
      "▁previously": 6809,
      "配置": 6810,
      "▁nothing": 6811,
      "asc": 6812,
      "omin": 6813,
      "▁charg": 6814,
      "▁</": 6815,
      "过去": 6816,
      "child": 6817,
      "第二百五十": 6818,
      "▁fully": 6819,
      "▁award": 6820,
      "更新": 6821,
      "▁statement": 6822,
      "▁European": 6823,
      "▁外": 6824,
      "Content": 6825,
      "▁po": 6826,
      "oto": 6827,
      "厘米": 6828,
      "营销": 6829,
      "▁prefer": 6830,
      "查询": 6831,
      "rowser": 6832,
      "ieved": 6833,
      "副本": 6834,
      "▁[]\\": 6835,
      "基金": 6836,
      "▁culture": 6837,
      "思路": 6838,
      "clusion": 6839,
      "Http": 6840,
      "事业": 6841,
      "银行股份有限公司": 6842,
      "群众": 6843,
      "▁Commun": 6844,
      "▁mice": 6845,
      "真实": 6846,
      "▁changed": 6847,
      "▁thus": 6848,
      "nam": 6849,
      "▁ratio": 6850,
      "提起": 6851,
      "DB": 6852,
      "它的": 6853,
      "▁Answer": 6854,
      "▁Sen": 6855,
      "▁remove": 6856,
      "▁Championship": 6857,
      "unit": 6858,
      "▁Mr": 6859,
      "正式": 6860,
      "▁Cour": 6861,
      "▁psych": 6862,
      "看看": 6863,
      "▁phen": 6864,
      "MB": 6865,
      "▁mobile": 6866,
      "▁database": 6867,
      "iable": 6868,
      "rep": 6869,
      "▁cool": 6870,
      "rolled": 6871,
      "作者是": 6872,
      "撤诉申请": 6873,
      "missions": 6874,
      "▁Hol": 6875,
      "十四": 6876,
      "也可以": 6877,
      "osing": 6878,
      "也会": 6879,
      "▁couple": 6880,
      "植物": 6881,
      "▁background": 6882,
      "房屋": 6883,
      "▁mechanism": 6884,
      "化的": 6885,
      "▁AND": 6886,
      "意识": 6887,
      "民初字第": 6888,
      "团队": 6889,
      "▁lack": 6890,
      "▁leaders": 6891,
      "▁storage": 6892,
      "后来": 6893,
      "fs": 6894,
      "anger": 6895,
      "▁charge": 6896,
      "ned": 6897,
      "▁safe": 6898,
      "izations": 6899,
      "▁Project": 6900,
      "明确": 6901,
      "ota": 6902,
      "来自": 6903,
      "atin": 6904,
      "▁Mac": 6905,
      "▁generated": 6906,
      "▁yourself": 6907,
      "▁Olymp": 6908,
      "▁module": 6909,
      "▁Service": 6910,
      "考查": 6911,
      "▁False": 6912,
      "azing": 6913,
      "▁note": 6914,
      "▁ones": 6915,
      "▁expert": 6916,
      "存款": 6917,
      "▁)\\": 6918,
      "▁ten": 6919,
      "hi": 6920,
      "给付": 6921,
      "oined": 6922,
      "先进": 6923,
      "words": 6924,
      ")^": 6925,
      "zer": 6926,
      "overy": 6927,
      "原审": 6928,
      "▁excell": 6929,
      "▁findings": 6930,
      "mar": 6931,
      "ga": 6932,
      "Act": 6933,
      "借贷": 6934,
      "▁vs": 6935,
      "▁metab": 6936,
      "▁filter": 6937,
      "obj": 6938,
      "▁fixed": 6939,
      "▁fine": 6940,
      "多的": 6941,
      "▁Cup": 6942,
      "▁mention": 6943,
      "浙江省": 6944,
      "▁library": 6945,
      "DO": 6946,
      "txt": 6947,
      "▁traditional": 6948,
      "▁suit": 6949,
      "▁nature": 6950,
      "only": 6951,
      "infty": 6952,
      "▁East": 6953,
      "正确的": 6954,
      "IO": 6955,
      "onic": 6956,
      "rees": 6957,
      "isions": 6958,
      "ialog": 6959,
      "结婚": 6960,
      "减半": 6961,
      "hens": 6962,
      "Line": 6963,
      "can": 6964,
      "下载": 6965,
      "ometry": 6966,
      "▁collabor": 6967,
      "Group": 6968,
      "Url": 6969,
      "题目": 6970,
      "anged": 6971,
      "▁costs": 6972,
      "▁WIT": 6973,
      "战略": 6974,
      "▁Met": 6975,
      "▁French": 6976,
      "command": 6977,
      "framework": 6978,
      "EX": 6979,
      "▁prem": 6980,
      "FT": 6981,
      "▁died": 6982,
      "rate": 6983,
      "esis": 6984,
      "自由": 6985,
      "▁rot": 6986,
      "▁Web": 6987,
      "已知": 6988,
      "LIC": 6989,
      "▁happy": 6990,
      "▁Canada": 6991,
      "▁vert": 6992,
      "▁mac": 6993,
      "URL": 6994,
      "▁operation": 6995,
      "atically": 6996,
      "NS": 6997,
      "Button": 6998,
      "pir": 6999,
      "▁auth": 7000,
      "▁aspect": 7001,
      "################": 7002,
      "ivo": 7003,
      "actor": 7004,
      "若干": 7005,
      "docs": 7006,
      "rd": 7007,
      "mem": 7008,
      "ville": 7009,
      "▁cyt": 7010,
      "ENSE": 7011,
      "不错": 7012,
      "sembly": 7013,
      "▁width": 7014,
      "amma": 7015,
      "▁Also": 7016,
      "icks": 7017,
      "orpor": 7018,
      "usr": 7019,
      "xx": 7020,
      "董事": 7021,
      "ao": 7022,
      "反应": 7023,
      "itors": 7024,
      "▁settings": 7025,
      "▁Windows": 7026,
      "▁eth": 7027,
      "统一": 7028,
      "inct": 7029,
      "▁core": 7030,
      "事故": 7031,
      "▁description": 7032,
      "▁president": 7033,
      "▁prime": 7034,
      "▁viol": 7035,
      "▁neigh": 7036,
      "▁mount": 7037,
      "itis": 7038,
      "▁zero": 7039,
      "最近": 7040,
      "鉴定": 7041,
      "干部": 7042,
      "▁summer": 7043,
      "conf": 7044,
      "▁requirements": 7045,
      "▁Rem": 7046,
      "▁window": 7047,
      "动物": 7048,
      "▁interesting": 7049,
      "▁ow": 7050,
      "▁whose": 7051,
      "肯定": 7052,
      "ls": 7053,
      "▁scale": 7054,
      "安徽省": 7055,
      "protected": 7056,
      "▁ded": 7057,
      "▁families": 7058,
      "ilitary": 7059,
      "▁sets": 7060,
      "▁exactly": 7061,
      "require": 7062,
      "▁Don": 7063,
      "发表": 7064,
      "▁heat": 7065,
      "▁teams": 7066,
      "来了": 7067,
      "▁comfort": 7068,
      "▁ID": 7069,
      "dule": 7070,
      "apache": 7071,
      "Conn": 7072,
      "▁seg": 7073,
      "父母": 7074,
      "复杂": 7075,
      "▁measured": 7076,
      "▁combination": 7077,
      "▁Phil": 7078,
      "idden": 7079,
      "▁absol": 7080,
      "▁exerc": 7081,
      "▁drive": 7082,
      "▁hop": 7083,
      "大小": 7084,
      "十分": 7085,
      "▁Since": 7086,
      "▁collect": 7087,
      "▁monitor": 7088,
      "▁completely": 7089,
      "Property": 7090,
      "close": 7091,
      "▁war": 7092,
      "▁cycl": 7093,
      "▁fre": 7094,
      "▁sold": 7095,
      "的解释": 7096,
      "wide": 7097,
      "▁solid": 7098,
      "▁/>\\": 7099,
      "▁cardi": 7100,
      "▁net": 7101,
      "RANT": 7102,
      "▁produce": 7103,
      "▁regarding": 7104,
      "道路": 7105,
      "annot": 7106,
      "▁tag": 7107,
      "的重要": 7108,
      "PA": 7109,
      "vest": 7110,
      "ounter": 7111,
      "▁tree": 7112,
      "打开": 7113,
      "形的": 7114,
      "graph": 7115,
      "ught": 7116,
      "plant": 7117,
      "引起": 7118,
      "tee": 7119,
      "观察": 7120,
      "▁Republic": 7121,
      "uffer": 7122,
      "▁sympt": 7123,
      "matrix": 7124,
      "▁wood": 7125,
      "▁json": 7126,
      "文名": 7127,
      "▁Version": 7128,
      "▁handle": 7129,
      "▁towards": 7130,
      "特征": 7131,
      "描述": 7132,
      "sem": 7133,
      "▁deaths": 7134,
      "▁organization": 7135,
      "冻结": 7136,
      "必要": 7137,
      "▁park": 7138,
      "我是": 7139,
      "温度": 7140,
      "▁names": 7141,
      "▁innov": 7142,
      "技能": 7143,
      "▁expand": 7144,
      "▁ox": 7145,
      "▁channel": 7146,
      "rier": 7147,
      "▁hospital": 7148,
      "ART": 7149,
      "▁signal": 7150,
      "高的": 7151,
      "▁inform": 7152,
      "▁sales": 7153,
      "▁selection": 7154,
      "ensor": 7155,
      "iki": 7156,
      "▁Willi": 7157,
      "Us": 7158,
      "▁technique": 7159,
      "▁ball": 7160,
      "▁damage": 7161,
      "▁resource": 7162,
      "化学": 7163,
      "▁Hel": 7164,
      "params": 7165,
      "▁Program": 7166,
      "icated": 7167,
      "▁advant": 7168,
      "header": 7169,
      "From": 7170,
      "perties": 7171,
      "▁nor": 7172,
      "▁political": 7173,
      "EM": 7174,
      "▁var": 7175,
      "inner": 7176,
      "▁bank": 7177,
      "日立案": 7178,
      "▁worth": 7179,
      "▁interview": 7180,
      "▁ur": 7181,
      "▁affect": 7182,
      "ician": 7183,
      "nhttps": 7184,
      "规模": 7185,
      "▁lif": 7186,
      "▁flex": 7187,
      "里面": 7188,
      "Str": 7189,
      "▁Form": 7190,
      "▁Software": 7191,
      "▁genes": 7192,
      "rid": 7193,
      "▁structures": 7194,
      "nvar": 7195,
      "▁Di": 7196,
      "has": 7197,
      "成了": 7198,
      "世纪": 7199,
      "icensed": 7200,
      "相对": 7201,
      "▁campaign": 7202,
      "Command": 7203,
      "并不": 7204,
      "▁police": 7205,
      "▁页": 7206,
      "之间的": 7207,
      "FL": 7208,
      "▁River": 7209,
      "inese": 7210,
      "iment": 7211,
      "itch": 7212,
      "▁Mor": 7213,
      "ho": 7214,
      "▁score": 7215,
      "Factory": 7216,
      "从事": 7217,
      "▁restr": 7218,
      "ymph": 7219,
      "Module": 7220,
      "Let": 7221,
      "nfor": 7222,
      "一份": 7223,
      "pret": 7224,
      "beta": 7225,
      "free": 7226,
      "igration": 7227,
      "uate": 7228,
      "▁auto": 7229,
      "▁goals": 7230,
      "stack": 7231,
      "撤回起诉": 7232,
      "Att": 7233,
      "▁gold": 7234,
      "▁devices": 7235,
      "ishing": 7236,
      "▁Law": 7237,
      "分为": 7238,
      "rive": 7239,
      "las": 7240,
      "weight": 7241,
      "▁sell": 7242,
      "▁goes": 7243,
      "▁strategy": 7244,
      "减半收取": 7245,
      "判处": 7246,
      "▁creating": 7247,
      "▁correl": 7248,
      "平方米": 7249,
      "▁announced": 7250,
      "起点": 7251,
      "成长": 7252,
      "夫妻": 7253,
      "香港": 7254,
      "台湾": 7255,
      "acebook": 7256,
      "help": 7257,
      "margin": 7258,
      "人类": 7259,
      "nAnswer": 7260,
      "确定的": 7261,
      "▁green": 7262,
      "nAfter": 7263,
      "时期": 7264,
      "home": 7265,
      "▁appropriate": 7266,
      "ederal": 7267,
      "▁catch": 7268,
      "工资": 7269,
      "spring": 7270,
      "▁Suppose": 7271,
      "adding": 7272,
      "useum": 7273,
      "房地产": 7274,
      "istor": 7275,
      "▁Bel": 7276,
      "如此": 7277,
      "▁quickly": 7278,
      "nel": 7279,
      "Token": 7280,
      "子的": 7281,
      "CI": 7282,
      "有点": 7283,
      "采取": 7284,
      "On": 7285,
      "▁labor": 7286,
      "相信": 7287,
      "不少": 7288,
      "办理": 7289,
      "aine": 7290,
      "▁Vir": 7291,
      "▁rout": 7292,
      "Sup": 7293,
      "▁adapt": 7294,
      "▁HT": 7295,
      "▁gets": 7296,
      "有限责任": 7297,
      "▁interested": 7298,
      "▁relevant": 7299,
      "RNA": 7300,
      "商务": 7301,
      "▁Bo": 7302,
      "▁Street": 7303,
      "roy": 7304,
      "nUn": 7305,
      "adian": 7306,
      "RI": 7307,
      "lamm": 7308,
      "▁contain": 7309,
      "ummer": 7310,
      "ests": 7311,
      "第一百四十五": 7312,
      "super": 7313,
      "imer": 7314,
      "Query": 7315,
      "CON": 7316,
      "Aut": 7317,
      "adata": 7318,
      "▁Ear": 7319,
      "推进": 7320,
      "解题": 7321,
      "居民": 7322,
      "ini": 7323,
      "▁connection": 7324,
      "RL": 7325,
      "重要的": 7326,
      "exec": 7327,
      "有限责任公司": 7328,
      "▁infection": 7329,
      "教授": 7330,
      "对象": 7331,
      "妈妈": 7332,
      "hedul": 7333,
      "▁views": 7334,
      "▁Sing": 7335,
      "▁wonder": 7336,
      "ographic": 7337,
      "接口": 7338,
      "▁steps": 7339,
      "▁Div": 7340,
      "▁Mal": 7341,
      "opic": 7342,
      "▁les": 7343,
      "▁lives": 7344,
      "▁requires": 7345,
      "▁treated": 7346,
      "确实": 7347,
      "手术": 7348,
      "▁relative": 7349,
      "gebra": 7350,
      "▁Over": 7351,
      "▁WARRANT": 7352,
      "ago": 7353,
      "陪审": 7354,
      "▁NOT": 7355,
      "parser": 7356,
      "▁Fil": 7357,
      "Builder": 7358,
      "▁appoint": 7359,
      "▁influence": 7360,
      "结束": 7361,
      "urt": 7362,
      "▁evaluate": 7363,
      "条的规定": 7364,
      "▁larger": 7365,
      "▁moved": 7366,
      "issues": 7367,
      "详细": 7368,
      "aby": 7369,
      "▁Ben": 7370,
      "FF": 7371,
      "lambda": 7372,
      "训练": 7373,
      "ki": 7374,
      "到庭参加": 7375,
      "ni": 7376,
      "▁healthy": 7377,
      "Dis": 7378,
      "enty": 7379,
      "ano": 7380,
      "UI": 7381,
      "igma": 7382,
      "nhttp": 7383,
      "Entity": 7384,
      "规范": 7385,
      "▁caused": 7386,
      "当前": 7387,
      "▁particularly": 7388,
      "陪审员": 7389,
      "掌握": 7390,
      "▁implementation": 7391,
      "nprint": 7392,
      "▁plas": 7393,
      "▁commercial": 7394,
      "▁hol": 7395,
      "reated": 7396,
      "▁Home": 7397,
      "涉及": 7398,
      "erate": 7399,
      "▁session": 7400,
      "▁pul": 7401,
      "nth": 7402,
      "odies": 7403,
      "报道": 7404,
      "netic": 7405,
      "公共": 7406,
      "nvoid": 7407,
      "的最": 7408,
      "▁er": 7409,
      "kw": 7410,
      "尤其": 7411,
      "Equal": 7412,
      "ayers": 7413,
      "以前": 7414,
      "▁architect": 7415,
      "Run": 7416,
      "▁reports": 7417,
      "ria": 7418,
      "日止": 7419,
      "危险": 7420,
      "▁conver": 7421,
      "▁pair": 7422,
      "本文": 7423,
      "▁injury": 7424,
      "公式": 7425,
      "iat": 7426,
      "instance": 7427,
      "▁tested": 7428,
      "上诉状": 7429,
      "UE": 7430,
      "nav": 7431,
      "她的": 7432,
      "nPeople": 7433,
      "ester": 7434,
      "Util": 7435,
      "▁plans": 7436,
      "onday": 7437,
      "▁Find": 7438,
      "避免": 7439,
      "▁legal": 7440,
      "的值": 7441,
      "circ": 7442,
      "agon": 7443,
      "本裁定送达后即发生法律效力": 7444,
      "▁female": 7445,
      "▁revealed": 7446,
      "▁Solution": 7447,
      "▁celebr": 7448,
      "行的": 7449,
      "EO": 7450,
      "▁poor": 7451,
      "偿还": 7452,
      "ouncil": 7453,
      "▁derivative": 7454,
      "人民陪审员": 7455,
      "▁Ste": 7456,
      "微信": 7457,
      "iding": 7458,
      "astr": 7459,
      "河南省": 7460,
      "mas": 7461,
      "▁capacity": 7462,
      "▁television": 7463,
      "▁classes": 7464,
      "四川省": 7465,
      "▁serious": 7466,
      "▁python": 7467,
      "ITY": 7468,
      "运输": 7469,
      "▁equipment": 7470,
      "▁Vol": 7471,
      "Create": 7472,
      "本书": 7473,
      "▁planning": 7474,
      "独立": 7475,
      "nWith": 7476,
      "ped": 7477,
      "的新": 7478,
      "四年": 7479,
      "sim": 7480,
      "bi": 7481,
      "审判长": 7482,
      "▁train": 7483,
      "▁Using": 7484,
      "Stream": 7485,
      "▁fa": 7486,
      "绝对": 7487,
      "▁rules": 7488,
      "uced": 7489,
      "xml": 7490,
      "▁Association": 7491,
      "▁Ill": 7492,
      "▁developing": 7493,
      "▁receptor": 7494,
      "创造": 7495,
      "面对": 7496,
      "▁formation": 7497,
      "produ": 7498,
      "机制": 7499,
      "▁sen": 7500,
      "{%": 7501,
      "▁Friday": 7502,
      "force": 7503,
      "力量": 7504,
      "▁enzym": 7505,
      "ibly": 7506,
      "orders": 7507,
      "维护": 7508,
      "▁density": 7509,
      "▁公司": 7510,
      "深入": 7511,
      "文明": 7512,
      "ci": 7513,
      "▁generate": 7514,
      "▁shape": 7515,
      "nms": 7516,
      "▁science": 7517,
      "fix": 7518,
      "▁Foundation": 7519,
      "Version": 7520,
      "▁moving": 7521,
      "ITE": 7522,
      "整体": 7523,
      "▁David": 7524,
      "▁($": 7525,
      "▁syn": 7526,
      "ifically": 7527,
      "▁hair": 7528,
      "▁benefits": 7529,
      "Web": 7530,
      "消费者": 7531,
      "delete": 7532,
      "card": 7533,
      "ses": 7534,
      "NO": 7535,
      "▁middle": 7536,
      "▁picture": 7537,
      "Load": 7538,
      "皮肤": 7539,
      "理念": 7540,
      "▁parents": 7541,
      "Table": 7542,
      "▁TO": 7543,
      "指控": 7544,
      "undle": 7545,
      "▁stream": 7546,
      "EC": 7547,
      "$$\\\\": 7548,
      "▁cert": 7549,
      "sg": 7550,
      "▁largest": 7551,
      "erry": 7552,
      "ua": 7553,
      "贸易": 7554,
      "▁Time": 7555,
      "nIs": 7556,
      "rum": 7557,
      "sw": 7558,
      "自身": 7559,
      "hedule": 7560,
      "▁reduction": 7561,
      "▁Trump": 7562,
      "itchen": 7563,
      "分布": 7564,
      "讨论": 7565,
      "▁Great": 7566,
      "▁Anal": 7567,
      "▁electric": 7568,
      "特殊": 7569,
      "ryst": 7570,
      "acters": 7571,
      "▁Model": 7572,
      "vector": 7573,
      "▁cat": 7574,
      "▁fresh": 7575,
      "一定要": 7576,
      "req": 7577,
      "▁actual": 7578,
      "▁responses": 7579,
      "PD": 7580,
      "▁repe": 7581,
      "float": 7582,
      "▁although": 7583,
      "▁jud": 7584,
      "nAll": 7585,
      "▁Wash": 7586,
      "uy": 7587,
      "包含": 7588,
      "▁figure": 7589,
      "▁formula": 7590,
      "▁Use": 7591,
      "角色": 7592,
      "▁bus": 7593,
      "▁bud": 7594,
      "▁serve": 7595,
      "多次": 7596,
      "南京": 7597,
      "合议": 7598,
      "ello": 7599,
      "▁wrote": 7600,
      "重新": 7601,
      "lines": 7602,
      "false": 7603,
      "eria": 7604,
      "利率": 7605,
      "地点": 7606,
      "ien": 7607,
      "google": 7608,
      "了一个": 7609,
      "▁England": 7610,
      "▁fat": 7611,
      "▁py": 7612,
      "▁binding": 7613,
      "推动": 7614,
      "▁allowed": 7615,
      "它们": 7616,
      "sys": 7617,
      "MO": 7618,
      "oom": 7619,
      "▁sources": 7620,
      "▁remember": 7621,
      "发挥": 7622,
      "▁chance": 7623,
      "cases": 7624,
      "ky": 7625,
      "property": 7626,
      "计算机": 7627,
      "▁cm": 7628,
      "风格": 7629,
      "ideos": 7630,
      "▁Book": 7631,
      "先生": 7632,
      "▁measures": 7633,
      "displaystyle": 7634,
      "emplate": 7635,
      "限制": 7636,
      "olf": 7637,
      "osc": 7638,
      "▁processing": 7639,
      "▁saw": 7640,
      "十日内": 7641,
      "武汉": 7642,
      "相同": 7643,
      "▁surgery": 7644,
      "▁decided": 7645,
      "▁sou": 7646,
      "IES": 7647,
      "▁button": 7648,
      "store": 7649,
      "负责人": 7650,
      "slant": 7651,
      "center": 7652,
      "▁rock": 7653,
      "▁Tex": 7654,
      "无论": 7655,
      "▁Council": 7656,
      "资产": 7657,
      "LL": 7658,
      "▁extract": 7659,
      "▁improved": 7660,
      "king": 7661,
      "berg": 7662,
      "▁experimental": 7663,
      "▁woman": 7664,
      "三年": 7665,
      "nAt": 7666,
      "▁master": 7667,
      "ivil": 7668,
      "合议庭": 7669,
      "▁ST": 7670,
      "▁therefore": 7671,
      "▁Del": 7672,
      "▁delivery": 7673,
      "▁mys": 7674,
      "▁touch": 7675,
      "▁partners": 7676,
      "数是": 7677,
      "▁listed": 7678,
      "▁divided": 7679,
      "nThanks": 7680,
      "esh": 7681,
      "营养": 7682,
      "▁transl": 7683,
      "消息": 7684,
      "▁Wed": 7685,
      "▁helps": 7686,
      "▁giving": 7687,
      "normal": 7688,
      "ifying": 7689,
      "▁Institute": 7690,
      "patch": 7691,
      "▁encour": 7692,
      "Number": 7693,
      "▁vict": 7694,
      "rief": 7695,
      "年轻": 7696,
      "▁definit": 7697,
      "现象": 7698,
      "可是": 7699,
      "Fil": 7700,
      "cout": 7701,
      "图片": 7702,
      "异议": 7703,
      "My": 7704,
      "开放": 7705,
      "坐标": 7706,
      "▁attract": 7707,
      "二〇一五年": 7708,
      "props": 7709,
      "▁Object": 7710,
      "让人": 7711,
      "\\\\\"": 7712,
      "then": 7713,
      "▁roll": 7714,
      "arant": 7715,
      "发展的": 7716,
      "▁Nov": 7717,
      "▁hous": 7718,
      "▁Further": 7719,
      "▁外文名": 7720,
      "ston": 7721,
      "▁characteristics": 7722,
      "▁calc": 7723,
      "▁mort": 7724,
      "照片": 7725,
      "ATH": 7726,
      "▁sleep": 7727,
      "phone": 7728,
      "oyal": 7729,
      "PR": 7730,
      "▁schools": 7731,
      "创业": 7732,
      "▁连载平台": 7733,
      "亿元": 7734,
      "▁adjust": 7735,
      "haps": 7736,
      "▁中国": 7737,
      "antic": 7738,
      "▁sun": 7739,
      "anges": 7740,
      "asket": 7741,
      "▁thanks": 7742,
      "少年": 7743,
      "基于": 7744,
      "▁responsible": 7745,
      "▁Sund": 7746,
      "▁rapid": 7747,
      "pan": 7748,
      "option": 7749,
      "▁define": 7750,
      "▁Cam": 7751,
      "▁sys": 7752,
      "▁Two": 7753,
      "Char": 7754,
      "▁internal": 7755,
      "江苏省": 7756,
      "Server": 7757,
      "▁growing": 7758,
      "▁Prov": 7759,
      "▁TH": 7760,
      "range": 7761,
      "logger": 7762,
      "▁resistance": 7763,
      "install": 7764,
      "分类": 7765,
      "该公司": 7766,
      "etimes": 7767,
      "isation": 7768,
      "▁equations": 7769,
      "成都": 7770,
      "▁Mag": 7771,
      "▁sports": 7772,
      "会有": 7773,
      "▁neur": 7774,
      "ESS": 7775,
      "而是": 7776,
      "rim": 7777,
      "元素": 7778,
      "我觉得": 7779,
      "▁analyz": 7780,
      "▁excellent": 7781,
      "▁occur": 7782,
      "效率": 7783,
      "仔细": 7784,
      "▁phosph": 7785,
      "▁刘": 7786,
      "▁century": 7787,
      "连续": 7788,
      "遇到": 7789,
      "▁Any": 7790,
      "等等": 7791,
      "▁android": 7792,
      "abet": 7793,
      "▁profile": 7794,
      "attr": 7795,
      "行动": 7796,
      "▁eight": 7797,
      "▁lib": 7798,
      "▁Pal": 7799,
      "数学": 7800,
      "car": 7801,
      "▁counter": 7802,
      "igger": 7803,
      "不了": 7804,
      "值得": 7805,
      "比例": 7806,
      "mselves": 7807,
      "安排": 7808,
      "PT": 7809,
      "最高人民法院关于适用": 7810,
      "▁operations": 7811,
      "重庆市": 7812,
      "rete": 7813,
      ")}": 7814,
      "▁star": 7815,
      "▁vent": 7816,
      "▁reaction": 7817,
      "▁React": 7818,
      "▁piece": 7819,
      "青年": 7820,
      "▁Paul": 7821,
      "▁trust": 7822,
      "▁kin": 7823,
      "▁stock": 7824,
      "ributes": 7825,
      "▁situation": 7826,
      "items": 7827,
      "构成": 7828,
      "▁membr": 7829,
      "nNow": 7830,
      "力的": 7831,
      "rical": 7832,
      "icine": 7833,
      "▁Date": 7834,
      "广东省": 7835,
      "▁Que": 7836,
      "符合法律规定": 7837,
      "▁alter": 7838,
      "aud": 7839,
      "▁pen": 7840,
      "可得": 7841,
      "▁\\\\(": 7842,
      "Json": 7843,
      "▁firm": 7844,
      "arden": 7845,
      "▁Ke": 7846,
      "▁posted": 7847,
      "aughter": 7848,
      "根本": 7849,
      "raise": 7850,
      "进行了审理": 7851,
      "▁adding": 7852,
      "保全": 7853,
      "北京市": 7854,
      "▁approximately": 7855,
      "nor": 7856,
      "aser": 7857,
      "ufeff": 7858,
      "▁containing": 7859,
      "委会": 7860,
      "oday": 7861,
      "▁combined": 7862,
      "▁older": 7863,
      "▁Run": 7864,
      "幸福": 7865,
      "工商": 7866,
      "▁earlier": 7867,
      "▁Green": 7868,
      "主题": 7869,
      "▁remains": 7870,
      "van": 7871,
      "▁morning": 7872,
      "akers": 7873,
      "▁themselves": 7874,
      "ech": 7875,
      "fa": 7876,
      "ona": 7877,
      "values": 7878,
      "▁carry": 7879,
      "▁German": 7880,
      "的一个": 7881,
      "ository": 7882,
      "▁column": 7883,
      "rey": 7884,
      "▁strategies": 7885,
      "吉林": 7886,
      "▁dim": 7887,
      "▁Club": 7888,
      "的影响": 7889,
      "icate": 7890,
      "▁license": 7891,
      "成果": 7892,
      "球队": 7893,
      "▁north": 7894,
      "▁communication": 7895,
      "法律文书": 7896,
      "试验": 7897,
      "▁race": 7898,
      "▁supply": 7899,
      "apeut": 7900,
      "ded": 7901,
      "ucture": 7902,
      "▁comments": 7903,
      "▁conducted": 7904,
      "house": 7905,
      "rian": 7906,
      "▁Although": 7907,
      "大多": 7908,
      "▁credit": 7909,
      "现实": 7910,
      "^{\\\\": 7911,
      "▁meaning": 7912,
      "▁aware": 7913,
      "▁activation": 7914,
      "EMA": 7915,
      "▁vehicle": 7916,
      "▁errors": 7917,
      "本身": 7918,
      "apped": 7919,
      "▁appears": 7920,
      "连接": 7921,
      "▁photos": 7922,
      "▁lip": 7923,
      "omial": 7924,
      "urrenc": 7925,
      "▁detection": 7926,
      "▁Hall": 7927,
      "▁django": 7928,
      "▁boolean": 7929,
      "porary": 7930,
      "di": 7931,
      "▁kids": 7932,
      "ils": 7933,
      "▁animals": 7934,
      "▁Microsoft": 7935,
      "▁subjects": 7936,
      "▁Gover": 7937,
      "蛋白": 7938,
      "差异": 7939,
      "▁insurance": 7940,
      "▁south": 7941,
      "原则": 7942,
      ")/(": 7943,
      ":\"": 7944,
      "non": 7945,
      "▁hour": 7946,
      "算法": 7947,
      "所在": 7948,
      "FI": 7949,
      "iveness": 7950,
      "的工作": 7951,
      "▁convert": 7952,
      "完善": 7953,
      "▁Check": 7954,
      "▁genetic": 7955,
      "民间借贷": 7956,
      "▁chemical": 7957,
      "▁parameter": 7958,
      "send": 7959,
      "▁investigate": 7960,
      "证实": 7961,
      "undred": 7962,
      "▁tal": 7963,
      "自治区": 7964,
      "']": 7965,
      "▁directory": 7966,
      "AV": 7967,
      "ker": 7968,
      "机器": 7969,
      "ULL": 7970,
      "▁plus": 7971,
      "背景": 7972,
      "▁demand": 7973,
      "改善": 7974,
      "年代": 7975,
      "▁sometimes": 7976,
      "ategories": 7977,
      "▁dark": 7978,
      "Call": 7979,
      "百度": 7980,
      "rought": 7981,
      "uman": 7982,
      "▁economic": 7983,
      "本题": 7984,
      "CK": 7985,
      "nPl": 7986,
      "▁concentration": 7987,
      "组成合议庭": 7988,
      "▁AD": 7989,
      "▁Rel": 7990,
      "which": 7991,
      "▁Sur": 7992,
      "▁rank": 7993,
      "overrightarrow": 7994,
      "▁apprec": 7995,
      "以为": 7996,
      "▁stri": 7997,
      "运营": 7998,
      "作出的": 7999,
      "▁ord": 8000,
      "▁info": 8001,
      "▁coach": 8002,
      "女性": 8003,
      "cp": 8004,
      "欢迎": 8005,
      "推广": 8006,
      "▁tra": 8007,
      "▁epis": 8008,
      "事情": 8009,
      "来源": 8010,
      "▁pi": 8011,
      "▁demonstrated": 8012,
      "▁Most": 8013,
      "Link": 8014,
      "olved": 8015,
      "▁Design": 8016,
      "▁mm": 8017,
      "inity": 8018,
      "上海市": 8019,
      "arts": 8020,
      "pol": 8021,
      "幼儿": 8022,
      "▁gave": 8023,
      "▁pages": 8024,
      "▁{\\\\": 8025,
      "eal": 8026,
      "▁notice": 8027,
      "的时间": 8028,
      "▁smaller": 8029,
      "▁rule": 8030,
      "▁Bay": 8031,
      "爱情": 8032,
      "SI": 8033,
      "illa": 8034,
      "▁failure": 8035,
      "▁float": 8036,
      "Hz": 8037,
      "我就": 8038,
      "▁mg": 8039,
      "▁supported": 8040,
      "不用": 8041,
      "dep": 8042,
      "▁situ": 8043,
      "▁consult": 8044,
      "}/": 8045,
      "▁bur": 8046,
      "front": 8047,
      "}^": 8048,
      "▁Arch": 8049,
      "abilities": 8050,
      "hemical": 8051,
      "></": 8052,
      "gg": 8053,
      "第一百五十": 8054,
      "▁blue": 8055,
      "十六": 8056,
      "ette": 8057,
      "▁className": 8058,
      "mu": 8059,
      "▁query": 8060,
      "▁layer": 8061,
      "毕竟": 8062,
      "Pos": 8063,
      "▁seven": 8064,
      "▁guid": 8065,
      "娱乐": 8066,
      "内的": 8067,
      "Options": 8068,
      "医生": 8069,
      "dx": 8070,
      "▁agreed": 8071,
      "▁objects": 8072,
      "▁framework": 8073,
      "▁surround": 8074,
      "多种": 8075,
      "很好": 8076,
      "ella": 8077,
      "▁amazing": 8078,
      "▁surpr": 8079,
      "▁White": 8080,
      "不足": 8081,
      "pop": 8082,
      "▁decl": 8083,
      "▁director": 8084,
      "iginal": 8085,
      "打造": 8086,
      "▁reflect": 8087,
      "▁extr": 8088,
      "▁updated": 8089,
      "cf": 8090,
      "TER": 8091,
      "▁决": 8092,
      "▁floor": 8093,
      "疫情": 8094,
      "HOUT": 8095,
      "LA": 8096,
      "到底": 8097,
      "Types": 8098,
      "▁FOR": 8099,
      "人民政府": 8100,
      "颜色": 8101,
      "▁concentr": 8102,
      "aturday": 8103,
      "广泛": 8104,
      "onym": 8105,
      "container": 8106,
      "▁capital": 8107,
      "▁returned": 8108,
      "ipped": 8109,
      "▁interaction": 8110,
      "日向本院提出": 8111,
      "jpg": 8112,
      "党员": 8113,
      "▁Us": 8114,
      "cap": 8115,
      "年龄": 8116,
      "一切": 8117,
      "imensional": 8118,
      "grade": 8119,
      "CM": 8120,
      "▁yield": 8121,
      "一个人": 8122,
      "cy": 8123,
      "she": 8124,
      "物质": 8125,
      "分子": 8126,
      "scrib": 8127,
      "选择题": 8128,
      "ethyl": 8129,
      "▁diagnosis": 8130,
      "家的": 8131,
      "主动": 8132,
      "ASS": 8133,
      "▁Science": 8134,
      "▁imm": 8135,
      "▁advanced": 8136,
      "nMy": 8137,
      "▁definition": 8138,
      "faces": 8139,
      "▁Type": 8140,
      "▁election": 8141,
      "▁finding": 8142,
      "ili": 8143,
      "▁investigated": 8144,
      "▁fair": 8145,
      "ctors": 8146,
      "nFrom": 8147,
      "▁failed": 8148,
      "▁Facebook": 8149,
      "Valid": 8150,
      "▁trend": 8151,
      "Provider": 8152,
      "小区": 8153,
      "ancing": 8154,
      "▁diseases": 8155,
      "他们的": 8156,
      "▁radio": 8157,
      "fully": 8158,
      "▁eye": 8159,
      "▁\"/": 8160,
      "▁motor": 8161,
      "Source": 8162,
      "rics": 8163,
      "概念": 8164,
      "▁evaluation": 8165,
      "(\"%": 8166,
      "▁Read": 8167,
      "pers": 8168,
      "auto": 8169,
      "学会": 8170,
      "优化": 8171,
      "▁nut": 8172,
      "让我": 8173,
      "address": 8174,
      "Box": 8175,
      "▁Gl": 8176,
      "▁flu": 8177,
      "▁alone": 8178,
      "▁generation": 8179,
      "表明": 8180,
      "▁spread": 8181,
      "包装": 8182,
      "render": 8183,
      "▁mother": 8184,
      "号民事判决书": 8185,
      "▁patterns": 8186,
      "▁earn": 8187,
      "▁remov": 8188,
      "bstract": 8189,
      "aset": 8190,
      "▁exposure": 8191,
      "structor": 8192,
      "Point": 8193,
      "wers": 8194,
      "azon": 8195,
      "▁Build": 8196,
      "rs": 8197,
      "内部": 8198,
      "▁applicable": 8199,
      "pository": 8200,
      "▁Che": 8201,
      "▁recorded": 8202,
      "经审理": 8203,
      "pub": 8204,
      "▁returns": 8205,
      "▁出生": 8206,
      "final": 8207,
      "border": 8208,
      "▁origin": 8209,
      "how": 8210,
      "▁molec": 8211,
      "ifications": 8212,
      "▁Rich": 8213,
      "▁benefit": 8214,
      "▁emb": 8215,
      "GE": 8216,
      "▁outcomes": 8217,
      "anagement": 8218,
      "总经理": 8219,
      "agram": 8220,
      "aight": 8221,
      "研发": 8222,
      "nend": 8223,
      "▁Monday": 8224,
      "▁Washington": 8225,
      "伤害": 8226,
      "phi": 8227,
      "\\'\\'": 8228,
      "iform": 8229,
      "reek": 8230,
      "总结": 8231,
      "▁thinking": 8232,
      "习惯": 8233,
      "▁chronic": 8234,
      "dy": 8235,
      "iately": 8236,
      "▁stuff": 8237,
      "▁Phys": 8238,
      "PU": 8239,
      "▁;": 8240,
      "▁mit": 8241,
      "▁college": 8242,
      "▁wild": 8243,
      "启动": 8244,
      "▁bool": 8245,
      "点的": 8246,
      "据此": 8247,
      "rapper": 8248,
      "Det": 8249,
      "▁Gold": 8250,
      "system": 8251,
      "▁metal": 8252,
      "▁Texas": 8253,
      "▁marketing": 8254,
      "公开开庭": 8255,
      "执字第": 8256,
      "▁beginning": 8257,
      "▁enhance": 8258,
      "▁chain": 8259,
      "▁protect": 8260,
      "nin": 8261,
      "ements": 8262,
      "icity": 8263,
      "unicip": 8264,
      "▁experiments": 8265,
      "▁James": 8266,
      "题意": 8267,
      "▁category": 8268,
      "▁inject": 8269,
      "plicit": 8270,
      "▁Best": 8271,
      "▁prices": 8272,
      "*\\": 8273,
      "nOur": 8274,
      "▁Rad": 8275,
      "▁characters": 8276,
      "加上": 8277,
      "▁integer": 8278,
      "▁father": 8279,
      "▁constit": 8280,
      "site": 8281,
      "▁approaches": 8282,
      "anging": 8283,
      "▁implied": 8284,
      "IND": 8285,
      "asis": 8286,
      "▁favorite": 8287,
      "aved": 8288,
      "▁Road": 8289,
      "▁Python": 8290,
      "allel": 8291,
      "这次": 8292,
      "Instance": 8293,
      "资本": 8294,
      "▁math": 8295,
      "▁Chinese": 8296,
      "ulin": 8297,
      "nAmerican": 8298,
      "如果你": 8299,
      "▁purchase": 8300,
      "▁Party": 8301,
      "\\\\((": 8302,
      "gent": 8303,
      "▁bottom": 8304,
      "▁frame": 8305,
      "▁render": 8306,
      "有什么": 8307,
      "▁court": 8308,
      "▁bacter": 8309,
      "▁Games": 8310,
      "IA": 8311,
      "HP": 8312,
      "▁Sol": 8313,
      "coh": 8314,
      "▁~": 8315,
      "相当": 8316,
      "▁trade": 8317,
      "英国": 8318,
      "▁follows": 8319,
      "session": 8320,
      "读书": 8321,
      "▁alternative": 8322,
      "uesday": 8323,
      "▁cast": 8324,
      "[:": 8325,
      "pet": 8326,
      "▁HIV": 8327,
      "vec": 8328,
      "gest": 8329,
      "▁File": 8330,
      "▁separate": 8331,
      "▁Mem": 8332,
      "▁behavi": 8333,
      "▁photo": 8334,
      "induced": 8335,
      "licenses": 8336,
      "的方法": 8337,
      "obert": 8338,
      "▁((": 8339,
      "plete": 8340,
      "DIR": 8341,
      "▁vel": 8342,
      "anned": 8343,
      "entity": 8344,
      "日常": 8345,
      "▁publish": 8346,
      "高级": 8347,
      "山市": 8348,
      "所有的": 8349,
      "▁dro": 8350,
      "▁Lin": 8351,
      "thlet": 8352,
      "最大的": 8353,
      "▁opened": 8354,
      "▁News": 8355,
      "人生": 8356,
      "inder": 8357,
      "BS": 8358,
      "▁compliance": 8359,
      "▁France": 8360,
      "▁chrom": 8361,
      "▁challenge": 8362,
      "▁profession": 8363,
      "tfor": 8364,
      "▁minimum": 8365,
      "after": 8366,
      "riend": 8367,
      "▁Base": 8368,
      "在线": 8369,
      "尺寸": 8370,
      "click": 8371,
      "ru": 8372,
      "EMAIL": 8373,
      "▁fab": 8374,
      "▁Method": 8375,
      "▁prop": 8376,
      "▁huge": 8377,
      "▁upper": 8378,
      "nfunction": 8379,
      "ootball": 8380,
      "▁examples": 8381,
      "▁probability": 8382,
      "▁movie": 8383,
      "两种": 8384,
      "刑期": 8385,
      "▁bone": 8386,
      "▁exists": 8387,
      "整数": 8388,
      "▁repair": 8389,
      "ora": 8390,
      "anner": 8391,
      "至少": 8392,
      "▁sch": 8393,
      "▁guide": 8394,
      "二次": 8395,
      "▁instr": 8396,
      "的地方": 8397,
      "ture": 8398,
      "oration": 8399,
      "component": 8400,
      "角度": 8401,
      "▁imag": 8402,
      "save": 8403,
      "▁smooth": 8404,
      "▁Bre": 8405,
      "ether": 8406,
      "care": 8407,
      "▁sale": 8408,
      "能源": 8409,
      "contin": 8410,
      "hematics": 8411,
      "给你": 8412,
      "▁prepar": 8413,
      "ORT": 8414,
      "▁coding": 8415,
      "uzz": 8416,
      "▁equival": 8417,
      "ameters": 8418,
      "下列": 8419,
      "▁Hot": 8420,
      "▁lymph": 8421,
      "足球": 8422,
      "han": 8423,
      "ocity": 8424,
      "▁af": 8425,
      "▁scen": 8426,
      "ervation": 8427,
      "▁sust": 8428,
      "sey": 8429,
      "▁administration": 8430,
      "▁traff": 8431,
      "▁glass": 8432,
      "specific": 8433,
      "Core": 8434,
      "arp": 8435,
      "是不是": 8436,
      "探讨": 8437,
      "落实": 8438,
      "▁Lou": 8439,
      "困难": 8440,
      "▁mill": 8441,
      "tim": 8442,
      "广西": 8443,
      "▁annual": 8444,
      "▁soft": 8445,
      "▁SO": 8446,
      "▁restaur": 8447,
      "asure": 8448,
      "location": 8449,
      "中学": 8450,
      "estival": 8451,
      "ATION": 8452,
      "▁angle": 8453,
      "▁Mart": 8454,
      "going": 8455,
      "▁replacement": 8456,
      "损失": 8457,
      "▁Church": 8458,
      "nx": 8459,
      "Em": 8460,
      "▁easier": 8461,
      "▁survey": 8462,
      "中医": 8463,
      "▁prove": 8464,
      "▁Company": 8465,
      "Case": 8466,
      "▁Pen": 8467,
      "刑法": 8468,
      "判决如下": 8469,
      "▁Africa": 8470,
      "/*\\": 8471,
      "▁straight": 8472,
      "ursday": 8473,
      "irmed": 8474,
      "ications": 8475,
      "▁occurre": 8476,
      "iced": 8477,
      "▁trial": 8478,
      "的事情": 8479,
      "金属": 8480,
      "发现被执行人": 8481,
      "一条": 8482,
      "▁dry": 8483,
      "▁symptoms": 8484,
      "▁academ": 8485,
      "▁Sal": 8486,
      "▁door": 8487,
      "▁template": 8488,
      "然而": 8489,
      "▁ISBN": 8490,
      "▁finished": 8491,
      "Null": 8492,
      "vas": 8493,
      "LC": 8494,
      "example": 8495,
      "Method": 8496,
      "▁plays": 8497,
      "一日": 8498,
      "▁electron": 8499,
      "▁saying": 8500,
      "▁joint": 8501,
      "▁mis": 8502,
      "iny": 8503,
      "带来": 8504,
      "增强": 8505,
      "▁thous": 8506,
      "▁rare": 8507,
      "▁Ca": 8508,
      "▁employees": 8509,
      "公诉机关": 8510,
      "apers": 8511,
      "▁hands": 8512,
      "▁Thus": 8513,
      "keys": 8514,
      "▁connected": 8515,
      "▁Network": 8516,
      "$(": 8517,
      "itivity": 8518,
      "▁Sunday": 8519,
      "粉丝": 8520,
      "cat": 8521,
      "▁generally": 8522,
      "都在": 8523,
      "状况": 8524,
      "▁proof": 8525,
      "DR": 8526,
      "▁efficiency": 8527,
      "▁indicate": 8528,
      "ja": 8529,
      "评论": 8530,
      "第一百五十四": 8531,
      "▁Mult": 8532,
      "▁nan": 8533,
      "components": 8534,
      "▁contrast": 8535,
      "担保": 8536,
      "meta": 8537,
      "▁{}\\": 8538,
      "于是": 8539,
      "▁debut": 8540,
      "还要": 8541,
      "▁bath": 8542,
      "umns": 8543,
      "年度": 8544,
      "sign": 8545,
      "▁wave": 8546,
      "control": 8547,
      "▁Summer": 8548,
      "▁placed": 8549,
      "▁wish": 8550,
      "ashion": 8551,
      "VID": 8552,
      "▁smart": 8553,
      "▁die": 8554,
      "settings": 8555,
      "nesday": 8556,
      "afe": 8557,
      "▁Mex": 8558,
      "▁diet": 8559,
      "itar": 8560,
      "学术": 8561,
      "展示": 8562,
      "▁shared": 8563,
      "法规": 8564,
      "▁importance": 8565,
      "▁association": 8566,
      "tenance": 8567,
      "▁muscle": 8568,
      "oses": 8569,
      "��": 8570,
      "▁spent": 8571,
      "品质": 8572,
      "kin": 8573,
      "准许原告": 8574,
      "▁adult": 8575,
      "game": 8576,
      "▁switch": 8577,
      "由被告": 8578,
      "pc": 8579,
      "▁grant": 8580,
      "送达之日起": 8581,
      "aa": 8582,
      "istant": 8583,
      "▁Central": 8584,
      "就能": 8585,
      "▁subsequ": 8586,
      "SH": 8587,
      "出口": 8588,
      "▁literature": 8589,
      "▁church": 8590,
      "km": 8591,
      "▁opportunities": 8592,
      "公布": 8593,
      "▁environmental": 8594,
      "▁ideal": 8595,
      "论文": 8596,
      "当地": 8597,
      "▁fight": 8598,
      "▁Ber": 8599,
      ":\\\\": 8600,
      "ão": 8601,
      ")^{": 8602,
      "▁dead": 8603,
      "▁joined": 8604,
      "环保": 8605,
      "诉讼代理人": 8606,
      "aints": 8607,
      "▁exception": 8608,
      "▁configuration": 8609,
      "▁Miss": 8610,
      "▁bul": 8611,
      "快乐": 8612,
      "pling": 8613,
      "▁hundred": 8614,
      "一天": 8615,
      "举办": 8616,
      "诉被告": 8617,
      "▁WITHOUT": 8618,
      "▁experienced": 8619,
      "▁Question": 8620,
      "▁IT": 8621,
      "网上": 8622,
      "▁evaluated": 8623,
      "nThat": 8624,
      "nHere": 8625,
      "▁resulting": 8626,
      "▁passed": 8627,
      "▁maybe": 8628,
      "▁Apache": 8629,
      "Hel": 8630,
      "▁Year": 8631,
      "很多人": 8632,
      "本院在审理": 8633,
      "tml": 8634,
      "▁arriv": 8635,
      "确保": 8636,
      "encing": 8637,
      "nRe": 8638,
      "License": 8639,
      "▁Elect": 8640,
      "▁immediately": 8641,
      "bour": 8642,
      "lang": 8643,
      "▁thread": 8644,
      "▁Cong": 8645,
      "▁push": 8646,
      "▁Other": 8647,
      "▁Each": 8648,
      "▁fill": 8649,
      "inger": 8650,
      "▁introduced": 8651,
      "FA": 8652,
      "可供执行的财产": 8653,
      "▁Leg": 8654,
      "holder": 8655,
      "PM": 8656,
      "思考": 8657,
      "办公室": 8658,
      "▁actions": 8659,
      "▁breast": 8660,
      "arest": 8661,
      "▁Jun": 8662,
      "atabase": 8663,
      "Api": 8664,
      "`,": 8665,
      "▁describe": 8666,
      "Sec": 8667,
      "▁regions": 8668,
      "▁signed": 8669,
      "SO": 8670,
      "▁drugs": 8671,
      "▁drop": 8672,
      "cks": 8673,
      "register": 8674,
      "▁Saturday": 8675,
      "▁proposal": 8676,
      "Dec": 8677,
      "ato": 8678,
      "党委": 8679,
      "uan": 8680,
      "▁guess": 8681,
      "是指": 8682,
      "hab": 8683,
      "▁extension": 8684,
      "大会": 8685,
      "抚养": 8686,
      "说的": 8687,
      "同意": 8688,
      "▁competition": 8689,
      "▁Fore": 8690,
      "▁simpl": 8691,
      "到庭参加诉讼": 8692,
      "Repository": 8693,
      "ialize": 8694,
      "▁norm": 8695,
      "osen": 8696,
      "▁jour": 8697,
      "▁出版": 8698,
      "兴趣": 8699,
      "出具": 8700,
      "▁bug": 8701,
      "▁therm": 8702,
      "ensions": 8703,
      "ducation": 8704,
      "▁Flor": 8705,
      "▁Engine": 8706,
      "▁songs": 8707,
      "式的": 8708,
      "imary": 8709,
      "▁Jack": 8710,
      "aste": 8711,
      "▁har": 8712,
      "▁wife": 8713,
      "动力": 8714,
      "▁cos": 8715,
      "利益": 8716,
      "API": 8717,
      "突然": 8718,
      "街道": 8719,
      "▁ple": 8720,
      "▁vac": 8721,
      "Ref": 8722,
      "美元": 8723,
      "▁rob": 8724,
      "▁setup": 8725,
      "Default": 8726,
      "▁wid": 8727,
      "委托诉讼代理人": 8728,
      "▁Vis": 8729,
      "cr": 8730,
      "悔改": 8731,
      "▁sett": 8732,
      "iffer": 8733,
      "成员": 8734,
      "▁protocol": 8735,
      "▁efforts": 8736,
      "ailway": 8737,
      "▁detect": 8738,
      "某甲": 8739,
      "Read": 8740,
      "放在": 8741,
      "▁nearly": 8742,
      "▁dynamic": 8743,
      "▁partner": 8744,
      "▁imaging": 8745,
      "合适": 8746,
      "partial": 8747,
      "▁propose": 8748,
      "▁Long": 8749,
      "不等": 8750,
      "hash": 8751,
      "到的": 8752,
      "▁experiment": 8753,
      "大部分": 8754,
      "执行机关": 8755,
      "yond": 8756,
      "ita": 8757,
      "ensus": 8758,
      "Select": 8759,
      "升级": 8760,
      "▁开": 8761,
      "食物": 8762,
      "uns": 8763,
      "来看": 8764,
      "▁db": 8765,
      "ownload": 8766,
      "▁finally": 8767,
      "▁mouse": 8768,
      "▁\"^": 8769,
      "▁journal": 8770,
      "apeutic": 8771,
      "expected": 8772,
      "▁Create": 8773,
      "常见": 8774,
      "login": 8775,
      "添加": 8776,
      "look": 8777,
      "▁assessment": 8778,
      "▁directed": 8779,
      "scale": 8780,
      "董事长": 8781,
      "▁procedure": 8782,
      "GA": 8783,
      "绿色": 8784,
      "死亡": 8785,
      "cor": 8786,
      "重大": 8787,
      "▁password": 8788,
      "kwargs": 8789,
      "uly": 8790,
      "fields": 8791,
      "买卖": 8792,
      "▁edge": 8793,
      "▁runs": 8794,
      "anish": 8795,
      "▁Bi": 8796,
      "▁distinct": 8797,
      "aneous": 8798,
      "Phone": 8799,
      "▁exercise": 8800,
      "standing": 8801,
      "递交": 8802,
      "▁participants": 8803,
      "表面": 8804,
      "▁inflamm": 8805,
      "科技有限公司": 8806,
      "本院予以": 8807,
      "▁movement": 8808,
      "▁陈": 8809,
      "▁Germany": 8810,
      "▁discussed": 8811,
      "▁View": 8812,
      "olicy": 8813,
      "第一次": 8814,
      "eces": 8815,
      "annels": 8816,
      "▁analys": 8817,
      "▁virus": 8818,
      "▁Academ": 8819,
      "angular": 8820,
      "▁owners": 8821,
      "▁African": 8822,
      "公安局": 8823,
      "lif": 8824,
      "▁slight": 8825,
      "通常": 8826,
      "集中": 8827,
      "▁pool": 8828,
      "▁aims": 8829,
      "▁dou": 8830,
      "如不服本判决": 8831,
      "▁Society": 8832,
      "▁explore": 8833,
      "广州": 8834,
      "玩家": 8835,
      "sql": 8836,
      "job": 8837,
      "▁myself": 8838,
      "ean": 8839,
      "ted": 8840,
      "▁medium": 8841,
      "itative": 8842,
      "▁agents": 8843,
      "lig": 8844,
      "▁Court": 8845,
      "west": 8846,
      "▁priv": 8847,
      "▁Id": 8848,
      "▁military": 8849,
      "emic": 8850,
      "peed": 8851,
      "的基础": 8852,
      "▁Australian": 8853,
      "苹果": 8854,
      "对照": 8855,
      "Ps": 8856,
      "是个": 8857,
      "men": 8858,
      "nSub": 8859,
      "▁Ev": 8860,
      "▁hear": 8861,
      "▁Award": 8862,
      "▁tit": 8863,
      "▁survival": 8864,
      "▁NO": 8865,
      "所谓": 8866,
      "sort": 8867,
      "▁During": 8868,
      "▁manager": 8869,
      "▁collected": 8870,
      "▁cycle": 8871,
      "ulf": 8872,
      "有了": 8873,
      "的主要": 8874,
      "▁threat": 8875,
      "职工": 8876,
      "赔偿": 8877,
      "▁Power": 8878,
      "基地": 8879,
      "asic": 8880,
      "Sty": 8881,
      "简称": 8882,
      "▁Super": 8883,
      "LI": 8884,
      "greg": 8885,
      "福建省": 8886,
      "▁documentation": 8887,
      "指标": 8888,
      "科研": 8889,
      "▁interactions": 8890,
      "pression": 8891,
      "▁Mount": 8892,
      "强制执行": 8893,
      "▁communities": 8894,
      "曾经": 8895,
      "real": 8896,
      "▁gain": 8897,
      "▁arter": 8898,
      "心的": 8899,
      "▁induced": 8900,
      "▁spir": 8901,
      "One": 8902,
      "发出": 8903,
      "确有": 8904,
      "书面": 8905,
      "▁increases": 8906,
      "形象": 8907,
      "诉讼请求": 8908,
      "Check": 8909,
      "▁authors": 8910,
      "条第一款第": 8911,
      "bert": 8912,
      "asy": 8913,
      "▁Democr": 8914,
      "▁Top": 8915,
      "▁vitro": 8916,
      "家长": 8917,
      "remove": 8918,
      "*/\\": 8919,
      "感染": 8920,
      "▁protection": 8921,
      "▁spaces": 8922,
      "市人民法院": 8923,
      "TA": 8924,
      "症状": 8925,
      "▁showing": 8926,
      "▁farm": 8927,
      "orry": 8928,
      "每次": 8929,
      "match": 8930,
      "▁Main": 8931,
      "也就是": 8932,
      "ytic": 8933,
      "▁plasma": 8934,
      "();": 8935,
      "sync": 8936,
      "▁carried": 8937,
      "▁lung": 8938,
      "有一个": 8939,
      "大概": 8940,
      "是不": 8941,
      "严格": 8942,
      "空气": 8943,
      "▁shoot": 8944,
      "▁continuous": 8945,
      "\\']\\": 8946,
      "▁beyond": 8947,
      "的女": 8948,
      "▁Internet": 8949,
      "▁Therefore": 8950,
      "▁tox": 8951,
      "就业": 8952,
      "博士": 8953,
      "▁examined": 8954,
      "operative": 8955,
      "者的": 8956,
      "局长": 8957,
      "UD": 8958,
      "▁Mary": 8959,
      "xi": 8960,
      "track": 8961,
      "▁Town": 8962,
      "allery": 8963,
      "dk": 8964,
      "▁records": 8965,
      "▁videos": 8966,
      "蒙古": 8967,
      "▁animal": 8968,
      "bool": 8969,
      "oster": 8970,
      "secon": 8971,
      "最好": 8972,
      "elif": 8973,
      "▁seed": 8974,
      "ALL": 8975,
      "▁nation": 8976,
      "▁dose": 8977,
      "▁Kore": 8978,
      "学科": 8979,
      "▁vivo": 8980,
      "▁route": 8981,
      "沟通": 8982,
      "ounce": 8983,
      "▁incorpor": 8984,
      "药物": 8985,
      "ometric": 8986,
      "宝宝": 8987,
      "oted": 8988,
      "▁await": 8989,
      "▁Big": 8990,
      "▁Island": 8991,
      "osh": 8992,
      "▁hypothesis": 8993,
      "▁pharm": 8994,
      "nPlease": 8995,
      "▁Pet": 8996,
      "去了": 8997,
      "命题": 8998,
      "悔改表现": 8999,
      "Start": 9000,
      "oj": 9001,
      "▁nav": 9002,
      "tan": 9003,
      "umni": 9004,
      "▁degrees": 9005,
      "▁challenges": 9006,
      "quad": 9007,
      "看着": 9008,
      "▁expressed": 9009,
      "▁PC": 9010,
      "驳回": 9011,
      "▁continued": 9012,
      "▁strength": 9013,
      "▁Pe": 9014,
      "▁Text": 9015,
      "rb": 9016,
      "支行": 9017,
      "▁emot": 9018,
      "modules": 9019,
      "cache": 9020,
      "享受": 9021,
      "传播": 9022,
      "▁limitations": 9023,
      "▁warm": 9024,
      "Eng": 9025,
      "ola": 9026,
      "▁Rob": 9027,
      "▁none": 9028,
      "▁bond": 9029,
      "提供的": 9030,
      "▁resolution": 9031,
      "(){\\": 9032,
      "▁Union": 9033,
      "TY": 9034,
      "编辑": 9035,
      "▁formed": 9036,
      "▁uns": 9037,
      "iler": 9038,
      "nament": 9039,
      "nOne": 9040,
      "管理局": 9041,
      "ón": 9042,
      "End": 9043,
      "▁ing": 9044,
      "▁Results": 9045,
      "▁rats": 9046,
      "经审理查明": 9047,
      "debug": 9048,
      "▁married": 9049,
      "vari": 9050,
      "resents": 9051,
      "▁reasons": 9052,
      "ror": 9053,
      "不管": 9054,
      "tthis": 9055,
      "inated": 9056,
      "城区": 9057,
      "well": 9058,
      "ostic": 9059,
      "▁launch": 9060,
      "▁agent": 9061,
      "ellig": 9062,
      "cohol": 9063,
      "▁infr": 9064,
      "▁recip": 9065,
      "FC": 9066,
      "▁installed": 9067,
      "度的": 9068,
      "举行": 9069,
      "▁Oh": 9070,
      "ancer": 9071,
      "▁letter": 9072,
      "Script": 9073,
      "mut": 9074,
      "▁technical": 9075,
      "iar": 9076,
      "▁empty": 9077,
      ">(": 9078,
      "▁conv": 9079,
      "anta": 9080,
      "▁ign": 9081,
      "另一": 9082,
      "▁explain": 9083,
      "▁compre": 9084,
      "WA": 9085,
      "期间的": 9086,
      "▁pregn": 9087,
      "此外": 9088,
      "DIT": 9089,
      "▁Services": 9090,
      "▁operator": 9091,
      "▁wed": 9092,
      "▁symbol": 9093,
      "abin": 9094,
      "▁guarant": 9095,
      "▁minor": 9096,
      "▁Show": 9097,
      "▁budget": 9098,
      "婚姻": 9099,
      "动车": 9100,
      "革命": 9101,
      "▁Business": 9102,
      "歌曲": 9103,
      "▁Its": 9104,
      "draw": 9105,
      "mid": 9106,
      "▁Key": 9107,
      "▁unknown": 9108,
      "▁compare": 9109,
      "公示": 9110,
      "▁liver": 9111,
      "▁corresponding": 9112,
      "▁delay": 9113,
      "▁Michael": 9114,
      "▁sin": 9115,
      "广大": 9116,
      "elines": 9117,
      "装修": 9118,
      "inite": 9119,
      "民间借贷纠纷一案": 9120,
      "Sim": 9121,
      "的人数": 9122,
      "▁becomes": 9123,
      "ura": 9124,
      "▁affected": 9125,
      "ROM": 9126,
      "循环": 9127,
      "多个": 9128,
      "下降": 9129,
      "八年": 9130,
      "▁branch": 9131,
      "eli": 9132,
      "▁AR": 9133,
      "中华人民共和国刑法": 9134,
      "▁instruction": 9135,
      "plements": 9136,
      "▁Sam": 9137,
      "▁Development": 9138,
      "Post": 9139,
      "文字": 9140,
      "#####": 9141,
      "微博": 9142,
      "▁businesses": 9143,
      "required": 9144,
      "生育": 9145,
      "▁pictures": 9146,
      "几乎": 9147,
      "road": 9148,
      "outer": 9149,
      "▁deb": 9150,
      "评估": 9151,
      "选出": 9152,
      "direct": 9153,
      "Fl": 9154,
      "英雄": 9155,
      "▁Line": 9156,
      "▁decreased": 9157,
      "▁Good": 9158,
      "ORD": 9159,
      "搜索": 9160,
      "erman": 9161,
      "plan": 9162,
      "▁statist": 9163,
      "language": 9164,
      "是因为": 9165,
      "azine": 9166,
      "▁pet": 9167,
      "▁neut": 9168,
      "▁stories": 9169,
      "ustr": 9170,
      "pay": 9171,
      ")\\\\)": 9172,
      "▁offered": 9173,
      "▁[\"": 9174,
      "▁border": 9175,
      "shire": 9176,
      "▁GNU": 9177,
      "▁networks": 9178,
      "良好的": 9179,
      "应予": 9180,
      "blog": 9181,
      "Red": 9182,
      "▁controls": 9183,
      "▁appeared": 9184,
      "大量": 9185,
      "的好": 9186,
      "上了": 9187,
      "total": 9188,
      "高校": 9189,
      "具备": 9190,
      "▁Board": 9191,
      "▁internet": 9192,
      "▁investment": 9193,
      "贵州": 9194,
      "向本院申请": 9195,
      "▁Jer": 9196,
      "▁dress": 9197,
      "▁finish": 9198,
      "del": 9199,
      "主席": 9200,
      "▁feedback": 9201,
      "blob": 9202,
      "plugin": 9203,
      "▁Franc": 9204,
      "▁external": 9205,
      "▁fish": 9206,
      "接触": 9207,
      "iences": 9208,
      "▁adults": 9209,
      "自我": 9210,
      "▁workers": 9211,
      "生长": 9212,
      "boot": 9213,
      "agen": 9214,
      "▁furn": 9215,
      "▁选项": 9216,
      "▁[\\'": 9217,
      "▁examine": 9218,
      "在服刑": 9219,
      "神经": 9220,
      "▁elev": 9221,
      "BO": 9222,
      "▁argument": 9223,
      "▁Angel": 9224,
      "导演": 9225,
      "唯一": 9226,
      "对其": 9227,
      "▁(\"": 9228,
      "▁opening": 9229,
      "▁Step": 9230,
      "▁Tuesday": 9231,
[...]
